<pad>	0
<s>	0
</s>	0
<unk>	0
<0x00>	0
<0x01>	0
<0x02>	0
<0x03>	0
<0x04>	0
<0x05>	0
<0x06>	0
<0x07>	0
<0x08>	0
<0x09>	0
<0x0A>	0
<0x0B>	0
<0x0C>	0
<0x0D>	0
<0x0E>	0
<0x0F>	0
<0x10>	0
<0x11>	0
<0x12>	0
<0x13>	0
<0x14>	0
<0x15>	0
<0x16>	0
<0x17>	0
<0x18>	0
<0x19>	0
<0x1A>	0
<0x1B>	0
<0x1C>	0
<0x1D>	0
<0x1E>	0
<0x1F>	0
<0x20>	0
<0x21>	0
<0x22>	0
<0x23>	0
<0x24>	0
<0x25>	0
<0x26>	0
<0x27>	0
<0x28>	0
<0x29>	0
<0x2A>	0
<0x2B>	0
<0x2C>	0
<0x2D>	0
<0x2E>	0
<0x2F>	0
<0x30>	0
<0x31>	0
<0x32>	0
<0x33>	0
<0x34>	0
<0x35>	0
<0x36>	0
<0x37>	0
<0x38>	0
<0x39>	0
<0x3A>	0
<0x3B>	0
<0x3C>	0
<0x3D>	0
<0x3E>	0
<0x3F>	0
<0x40>	0
<0x41>	0
<0x42>	0
<0x43>	0
<0x44>	0
<0x45>	0
<0x46>	0
<0x47>	0
<0x48>	0
<0x49>	0
<0x4A>	0
<0x4B>	0
<0x4C>	0
<0x4D>	0
<0x4E>	0
<0x4F>	0
<0x50>	0
<0x51>	0
<0x52>	0
<0x53>	0
<0x54>	0
<0x55>	0
<0x56>	0
<0x57>	0
<0x58>	0
<0x59>	0
<0x5A>	0
<0x5B>	0
<0x5C>	0
<0x5D>	0
<0x5E>	0
<0x5F>	0
<0x60>	0
<0x61>	0
<0x62>	0
<0x63>	0
<0x64>	0
<0x65>	0
<0x66>	0
<0x67>	0
<0x68>	0
<0x69>	0
<0x6A>	0
<0x6B>	0
<0x6C>	0
<0x6D>	0
<0x6E>	0
<0x6F>	0
<0x70>	0
<0x71>	0
<0x72>	0
<0x73>	0
<0x74>	0
<0x75>	0
<0x76>	0
<0x77>	0
<0x78>	0
<0x79>	0
<0x7A>	0
<0x7B>	0
<0x7C>	0
<0x7D>	0
<0x7E>	0
<0x7F>	0
<0x80>	0
<0x81>	0
<0x82>	0
<0x83>	0
<0x84>	0
<0x85>	0
<0x86>	0
<0x87>	0
<0x88>	0
<0x89>	0
<0x8A>	0
<0x8B>	0
<0x8C>	0
<0x8D>	0
<0x8E>	0
<0x8F>	0
<0x90>	0
<0x91>	0
<0x92>	0
<0x93>	0
<0x94>	0
<0x95>	0
<0x96>	0
<0x97>	0
<0x98>	0
<0x99>	0
<0x9A>	0
<0x9B>	0
<0x9C>	0
<0x9D>	0
<0x9E>	0
<0x9F>	0
<0xA0>	0
<0xA1>	0
<0xA2>	0
<0xA3>	0
<0xA4>	0
<0xA5>	0
<0xA6>	0
<0xA7>	0
<0xA8>	0
<0xA9>	0
<0xAA>	0
<0xAB>	0
<0xAC>	0
<0xAD>	0
<0xAE>	0
<0xAF>	0
<0xB0>	0
<0xB1>	0
<0xB2>	0
<0xB3>	0
<0xB4>	0
<0xB5>	0
<0xB6>	0
<0xB7>	0
<0xB8>	0
<0xB9>	0
<0xBA>	0
<0xBB>	0
<0xBC>	0
<0xBD>	0
<0xBE>	0
<0xBF>	0
<0xC0>	0
<0xC1>	0
<0xC2>	0
<0xC3>	0
<0xC4>	0
<0xC5>	0
<0xC6>	0
<0xC7>	0
<0xC8>	0
<0xC9>	0
<0xCA>	0
<0xCB>	0
<0xCC>	0
<0xCD>	0
<0xCE>	0
<0xCF>	0
<0xD0>	0
<0xD1>	0
<0xD2>	0
<0xD3>	0
<0xD4>	0
<0xD5>	0
<0xD6>	0
<0xD7>	0
<0xD8>	0
<0xD9>	0
<0xDA>	0
<0xDB>	0
<0xDC>	0
<0xDD>	0
<0xDE>	0
<0xDF>	0
<0xE0>	0
<0xE1>	0
<0xE2>	0
<0xE3>	0
<0xE4>	0
<0xE5>	0
<0xE6>	0
<0xE7>	0
<0xE8>	0
<0xE9>	0
<0xEA>	0
<0xEB>	0
<0xEC>	0
<0xED>	0
<0xEE>	0
<0xEF>	0
<0xF0>	0
<0xF1>	0
<0xF2>	0
<0xF3>	0
<0xF4>	0
<0xF5>	0
<0xF6>	0
<0xF7>	0
<0xF8>	0
<0xF9>	0
<0xFA>	0
<0xFB>	0
<0xFC>	0
<0xFD>	0
<0xFE>	0
<0xFF>	0
▁t	-0
▁a	-1
in	-2
he	-3
re	-4
on	-5
▁the	-6
er	-7
▁s	-8
at	-9
▁o	-10
▁w	-11
▁c	-12
en	-13
it	-14
or	-15
es	-16
nd	-17
is	-18
▁f	-19
▁p	-20
ou	-21
▁b	-22
ing	-23
ed	-24
al	-25
an	-26
▁m	-27
▁to	-28
▁in	-29
ar	-30
▁of	-31
▁and	-32
▁d	-33
ic	-34
ion	-35
le	-36
as	-37
om	-38
▁h	-39
▁th	-40
ent	-41
ll	-42
▁re	-43
ro	-44
ct	-45
▁l	-46
▁e	-47
st	-48
▁n	-49
ve	-50
▁T	-51
▁I	-52
et	-53
ly	-54
▁y	-55
▁g	-56
▁is	-57
▁S	-58
id	-59
ot	-60
ut	-61
▁A	-62
▁be	-63
▁for	-64
im	-65
▁you	-66
ur	-67
ig	-68
se	-69
▁on	-70
▁C	-71
ce	-72
ow	-73
ra	-74
ation	-75
▁u	-76
--	-77
ay	-78
ch	-79
ver	-80
▁that	-81
il	-82
ith	-83
ol	-84
▁st	-85
am	-86
▁with	-87
ad	-88
▁M	-89
ir	-90
▁(	-91
▁The	-92
▁we	-93
▁it	-94
if	-95
▁an	-96
▁P	-97
▁as	-98
▁pro	-99
ter	-100
▁1	-101
▁con	-102
▁W	-103
▁B	-104
her	-105
ul	-106
▁wh	-107
ge	-108
ate	-109
od	-110
▁are	-111
ill	-112
pp	-113
▁or	-114
▁com	-115
ment	-116
ab	-117
ers	-118
▁de	-119
▁ha	-120
▁H	-121
ri	-122
ke	-123
▁F	-124
▁D	-125
est	-126
ess	-127
▁he	-128
▁2	-129
ld	-130
ac	-131
▁v	-132
▁ex	-133
▁at	-134
us	-135
▁se	-136
qu	-137
res	-138
rom	-139
pe	-140
ist	-141
▁su	-142
▁R	-143
th	-144
ore	-145
ant	-146
igh	-147
▁L	-148
ity	-149
▁was	-150
▁ne	-151
nt	-152
ive	-153
00	-154
os	-155
um	-156
oc	-157
op	-158
em	-159
▁N	-160
ain	-161
ort	-162
un	-163
▁r	-164
▁E	-165
▁by	-166
el	-167
----	-168
▁G	-169
▁from	-170
▁this	-171
▁have	-172
▁not	-173
▁"	-174
art	-175
▁al	-176
▁sh	-177
end	-178
▁O	-179
ies	-180
▁your	-181
▁ch	-182
▁can	-183
ust	-184
iv	-185
and	-186
ect	-187
ight	-188
ud	-189
ure	-190
all	-191
ial	-192
ie	-193
▁le	-194
pt	-195
our	-196
ome	-197
ould	-198
ard	-199
▁will	-200
out	-201
ine	-202
red	-203
ost	-204
ag	-205
per	-206
pl	-207
▁ab	-208
rou	-209
age	-210
▁pl	-211
ide	-212
▁wor	-213
▁us	-214
▁all	-215
ction	-216
▁j	-217
ated	-218
og	-219
▁Th	-220
ast	-221
▁-	-222
gh	-223
ff	-224
▁J	-225
ok	-226
▁ad	-227
▁In	-228
▁k	-229
ak	-230
▁do	-231
able	-232
ich	-233
▁whe	-234
ally	-235
▁comp	-236
ice	-237
te	-238
ther	-239
▁has	-240
▁U	-241
iz	-242
ack	-243
▁me	-244
ear	-245
▁cl	-246
▁$	-247
▁go	-248
▁im	-249
ind	-250
▁but	-251
▁en	-252
ib	-253
ip	-254
one	-255
▁3	-256
▁res	-257
▁cont	-258
orm	-259
ans	-260
are	-261
cc	-262
ue	-263
ry	-264
ase	-265
▁out	-266
cl	-267
act	-268
ime	-269
ous	-270
▁=	-271
ign	-272
du	-273
ake	-274
ong	-275
ions	-276
▁so	-277
ap	-278
ult	-279
ame	-280
▁which	-281
▁up	-282
ite	-283
01	-284
▁app	-285
ass	-286
▁more	-287
▁their	-288
ook	-289
ance	-290
▁they	-291
▁one	-292
very	-293
so	-294
ub	-295
ical	-296
==	-297
▁Y	-298
▁our	-299
ations	-300
▁0	-301
).	-302
ary	-303
▁int	-304
ach	-305
▁te	-306
▁K	-307
▁per	-308
▁my	-309
ru	-310
--------	-311
ire	-312
ike	-313
▁dis	-314
ia	-315
ile	-316
ose	-317
ace	-318
ep	-319
▁man	-320
▁were	-321
▁*	-322
▁\	-323
ree	-324
ence	-325
ail	-326
ber	-327
ks	-328
▁qu	-329
form	-330
▁It	-331
▁about	-332
ress	-333
▁fe	-334
reat	-335
vel	-336
ition	-337
av	-338
▁other	-339
▁un	-340
▁We	-341
erv	-342
▁ev	-343
au	-344
▁sp	-345
fe	-346
▁St	-347
▁also	-348
▁if	-349
ents	-350
..	-351
▁part	-352
ount	-353
▁his	-354
▁any	-355
ens	-356
▁V	-357
▁4	-358
▁time	-359
▁who	-360
▁This	-361
ord	-362
▁off	-363
int	-364
own	-365
▁5	-366
ond	-367
ors	-368
▁“	-369
▁ar	-370
port	-371
▁there	-372
▁some	-373
▁work	-374
▁pre	-375
▁get	-376
▁ag	-377
▁like	-378
ays	-379
ove	-380
▁new	-381
lic	-382
▁year	-383
▁been	-384
**	-385
▁sc	-386
ren	-387
ings	-388
▁when	-389
▁tra	-390
▁rec	-391
▁kn	-392
▁over	-393
▁Ch	-394
ory	-395
ck	-396
▁tr	-397
ound	-398
▁sa	-399
▁ro	-400
ark	-401
ild	-402
▁them	-403
▁than	-404
ang	-405
▁had	-406
▁would	-407
ph	-408
ick	-409
ath	-410
▁pe	-411
▁co	-412
▁spe	-413
▁<	-414
▁acc	-415
▁am	-416
▁[	-417
▁need	-418
ob	-419
▁201	-420
ough	-421
▁des	-422
xt	-423
ater	-424
▁comm	-425
),	-426
ty	-427
▁what	-428
▁{	-429
we	-430
ish	-431
clud	-432
▁no	-433
ject	-434
▁bec	-435
nder	-436
irst	-437
rent	-438
vers	-439
fter	-440
ov	-441
ces	-442
▁into	-443
wo	-444
ates	-445
▁just	-446
ft	-447
ne	-448
▁He	-449
wn	-450
▁ind	-451
ific	-452
ric	-453
▁prov	-454
▁its	-455
▁may	-456
ink	-457
oy	-458
urn	-459
▁19	-460
▁how	-461
old	-462
▁Wh	-463
▁add	-464
▁bet	-465
ple	-466
ons	-467
▁fo	-468
rough	-469
▁em	-470
ram	-471
ual	-472
ments	-473
▁bl	-474
tern	-475
▁use	-476
ious	-477
ople	-478
lect	-479
="	-480
▁sy	-481
▁dif	-482
▁only	-483
▁fl	-484
▁cons	-485
ull	-486
itt	-487
▁+	-488
ell	-489
▁act	-490
▁6	-491
ause	-492
▁.	-493
hed	-494
▁under	-495
▁her	-496
ian	-497
▁po	-498
iew	-499
ys	-500
▁first	-501
//	-502
▁ph	-503
▁ass	-504
▁rel	-505
▁includ	-506
get	-507
▁these	-508
);	-509
ating	-510
▁inc	-511
lp	-512
▁reg	-513
ont	-514
▁ra	-515
▁people	-516
▁bu	-517
erm	-518
▁You	-519
eth	-520
▁make	-521
ning	-522
ced	-523
iss	-524
▁two	-525
▁most	-526
ative	-527
▁&	-528
ert	-529
▁stud	-530
ise	-531
round	-532
▁know	-533
cial	-534
▁produ	-535
."	-536
ec	-537
▁help	-538
▁serv	-539
▁If	-540
▁inv	-541
▁well	-542
▁As	-543
cess	-544
▁through	-545
ied	-546
ily	-547
▁supp	-548
ata	-549
ew	-550
les	-551
ular	-552
pect	-553
oth	-554
▁}	-555
ities	-556
ange	-557
▁sub	-558
row	-559
▁pos	-560
rib	-561
ock	-562
stem	-563
▁look	-564
▁att	-565
fore	-566
hen	-567
▁col	-568
ased	-569
▁pr	-570
ade	-571
▁back	-572
▁ob	-573
====	-574
mer	-575
ility	-576
▁after	-577
▁where	-578
▁see	-579
▁want	-580
▁gen	-581
▁7	-582
als	-583
▁–	-584
sel	-585
-1	-586
▁every	-587
ient	-588
▁could	-589
▁eff	-590
0.	-591
▁ac	-592
▁mod	-593
ible	-594
▁rem	-595
aw	-596
ring	-597
▁such	-598
olog	-599
▁should	-600
▁diffe	-601
ures	-602
▁she	-603
▁then	-604
▁said	-605
▁set	-606
▁8	-607
▁'	-608
▁exper	-609
ps	-610
▁very	-611
ef	-612
▁trans	-613
▁sm	-614
ower	-615
▁ret	-616
ident	-617
uch	-618
▁many	-619
ational	-620
ood	-621
ful	-622
ract	-623
▁sec	-624
ices	-625
▁def	-626
▁inst	-627
▁requ	-628
▁pres	-629
▁dec	-630
ax	-631
rit	-632
▁ent	-633
ble	-634
▁Un	-635
uring	-636
ife	-637
▁way	-638
▁years	-639
▁imp	-640
▁ke	-641
----------------	-642
▁even	-643
▁loc	-644
{\	-645
▁inter	-646
ict	-647
▁right	-648
▁Re	-649
▁high	-650
day	-651
▁good	-652
cy	-653
▁9	-654
▁det	-655
ool	-656
its	-657
▁used	-658
erson	-659
▁An	-660
▁Com	-661
▁find	-662
ting	-663
▁fin	-664
velop	-665
any	-666
▁val	-667
▁For	-668
▁because	-669
hes	-670
ics	-671
iness	-672
▁exp	-673
llow	-674
ts	-675
▁system	-676
▁great	-677
ix	-678
formation	-679
aking	-680
▁sur	-681
▁ins	-682
▁min	-683
cept	-684
▁now	-685
▁sim	-686
ited	-687
▁sign	-688
▁fun	-689
▁bus	-690
▁did	-691
ween	-692
▁num	-693
▁show	-694
▁own	-695
ward	-696
air	-697
▁end	-698
▁form	-699
▁car	-700
▁10	-701
ize	-702
ues	-703
ork	-704
ution	-705
up	-706
▁start	-707
▁don	-708
arch	-709
▁between	-710
io	-711
▁play	-712
▁And	-713
ublic	-714
▁0.	-715
▁200	-716
▁Al	-717
▁inte	-718
▁gu	-719
▁pat	-720
▁down	-721
▁long	-722
▁mon	-723
▁much	-724
▁does	-725
com	-726
ever	-727
ience	-728
line	-729
gan	-730
▁#	-731
▁ext	-732
alth	-733
riv	-734
▁each	-735
▁che	-736
▁Pro	-737
▁day	-738
der	-739
hip	-740
▁here	-741
▁disc	-742
other	-743
▁using	-744
▁best	-745
▁var	-746
ank	-747
li	-748
▁av	-749
▁result	-750
▁develop	-751
▁different	-752
▁again	-753
▁bel	-754
▁call	-755
und	-756
ex	-757
▁cur	-758
▁read	-759
ash	-760
ages	-761
▁those	-762
rest	-763
ros	-764
▁There	-765
ode	-766
▁before	-767
▁him	-768
▁made	-769
▁cour	-770
▁med	-771
▁take	-772
▁being	-773
▁char	-774
▁design	-775
ins	-776
▁prog	-777
▁provid	-778
▁information	-779
▁data	-780
▁rep	-781
▁comple	-782
ek	-783
▁aut	-784
▁How	-785
▁person	-786
▁home	-787
▁ty	-788
▁import	-789
▁class	-790
▁think	-791
▁pol	-792
▁cor	-793
ven	-794
▁mem	-795
ince	-796
ner	-797
ized	-798
ason	-799
ute	-800
ale	-801
▁follow	-802
▁But	-803
ually	-804
imes	-805
ality	-806
ines	-807
▁cre	-808
▁gener	-809
led	-810
chn	-811
▁mark	-812
000	-813
▁both	-814
▁fact	-815
▁fam	-816
▁op	-817
▁business	-818
▁,	-819
ox	-820
ng	-821
▁while	-822
▁support	-823
▁i	-824
tt	-825
▁ser	-826
▁vis	-827
▁same	-828
irect	-829
▁hand	-830
▁dist	-831
de	-832
▁gra	-833
way	-834
▁inf	-835
▁process	-836
▁What	-837
ms	-838
ctions	-839
ature	-840
_{	-841
ants	-842
ee	-843
▁world	-844
▁found	-845
▁Sh	-846
ield	-847
▁count	-848
ets	-849
read	-850
ined	-851
▁product	-852
gg	-853
view	-854
ness	-855
self	-856
1.	-857
oun	-858
land	-859
ref	-860
oad	-861
▁life	-862
atch	-863
chool	-864
▁state	-865
▁grou	-866
▁On	-867
▁partic	-868
ave	-869
▁effect	-870
▁ear	-871
▁appro	-872
▁cle	-873
con	-874
alk	-875
▁New	-876
aint	-877
ouse	-878
uc	-879
ives	-880
bs	-881
iet	-882
ional	-883
▁lar	-884
▁sol	-885
az	-886
▁ed	-887
▁point	-888
▁last	-889
19	-890
▁test	-891
▁12	-892
▁lead	-893
ather	-894
▁fil	-895
▁dep	-896
ired	-897
▁post	-898
lease	-899
vent	-900
pr	-901
▁around	-902
amp	-903
▁str	-904
▁art	-905
▁commun	-906
ustom	-907
ruct	-908
ients	-909
▁gl	-910
▁eas	-911
ah	-912
▁number	-913
▁Q	-914
akes	-915
▁resp	-916
▁spec	-917
▁const	-918
▁incre	-919
▁exam	-920
ption	-921
-2	-922
▁pur	-923
▁ref	-924
▁som	-925
rol	-926
▁So	-927
ars	-928
ically	-929
▁sk	-930
ved	-931
▁return	-932
▁conf	-933
▁public	-934
▁care	-935
10	-936
}}	-937
▁run	-938
▁child	-939
▁case	-940
...	-941
[@	-942
arm	-943
ER	-944
ger	-945
ense	-946
▁sl	-947
▁place	-948
▁list	-949
▁still	-950
els	-951
▁poss	-952
iqu	-953
▁They	-954
cer	-955
▁cell	-956
▁Ar	-957
▁during	-958
▁really	-959
▁De	-960
gin	-961
▁small	-962
▁free	-963
▁program	-964
ving	-965
▁cent	-966
▁Let	-967
▁Ad	-968
less	-969
ared	-970
be	-971
▁tri	-972
▁though	-973
▁prof	-974
▁level	-975
▁three	-976
ivers	-977
ters	-978
ton	-979
▁avail	-980
ody	-981
ator	-982
ways	-983
▁team	-984
over	-985
the	-986
ining	-987
▁techn	-988
12	-989
me	-990
erg	-991
cent	-992
▁adv	-993
▁going	-994
ross	-995
▁without	-996
▁To	-997
ran	-998
▁report	-999
</	-1000
▁/	-1001
▁$\	-1002
man	-1003
▁health	-1004
▁iss	-1005
▁perform	-1006
1,	-1007
rence	-1008
ology	-1009
▁few	-1010
\]	-1011
ases	-1012
▁top	-1013
▁allow	-1014
▁plan	-1015
▁full	-1016
▁interest	-1017
▁second	-1018
▁too	-1019
nect	-1020
▁real	-1021
0,	-1022
ital	-1023
riend	-1024
▁proper	-1025
ier	-1026
ploy	-1027
▁happ	-1028
▁el	-1029
sc	-1030
▁including	-1031
▁must	-1032
ified	-1033
▁proble	-1034
▁Is	-1035
eng	-1036
▁love	-1037
ists	-1038
▁month	-1039
▁name	-1040
ateg	-1041
▁rest	-1042
ization	-1043
▁Ex	-1044
▁stand	-1045
ural	-1046
▁available	-1047
ral	-1048
▁order	-1049
▁present	-1050
▁say	-1051
▁book	-1052
▁Cl	-1053
to	-1054
▁custom	-1055
ittle	-1056
uss	-1057
inal	-1058
▁open	-1059
ential	-1060
2.	-1061
ider	-1062
ik	-1063
ished	-1064
▁lot	-1065
iving	-1066
▁When	-1067
▁est	-1068
__	-1069
▁quest	-1070
▁project	-1071
▁build	-1072
osed	-1073
ug	-1074
",	-1075
bers	-1076
ivid	-1077
stand	-1078
▁rece	-1079
▁pass	-1080
▁equ	-1081
▁ide	-1082
▁All	-1083
▁bo	-1084
ration	-1085
▁contin	-1086
ately	-1087
▁Be	-1088
▁wr	-1089
▁lear	-1090
ision	-1091
▁organ	-1092
meric	-1093
app	-1094
ware	-1095
ron	-1096
IN	-1097
▁within	-1098
▁service	-1099
co	-1100
▁Pl	-1101
▁oper	-1102
▁direct	-1103
ism	-1104
▁week	-1105
▁try	-1106
aj	-1107
3.	-1108
ency	-1109
▁feel	-1110
ethod	-1111
▁anal	-1112
##	-1113
▁mat	-1114
ium	-1115
ames	-1116
rid	-1117
}$	-1118
dition	-1119
▁15	-1120
par	-1121
▁cho	-1122
▁water	-1123
thing	-1124
▁let	-1125
▁important	-1126
▁things	-1127
ote	-1128
pro	-1129
▁expl	-1130
▁18	-1131
▁market	-1132
▁keep	-1133
ify	-1134
ething	-1135
▁since	-1136
▁pay	-1137
▁soc	-1138
▁activ	-1139
▁Le	-1140
▁term	-1141
▁better	-1142
▁prot	-1143
ves	-1144
▁20	-1145
reen	-1146
▁Ind	-1147
atic	-1148
min	-1149
math	-1150
▁current	-1151
put	-1152
▁//	-1153
▁Se	-1154
ten	-1155
▁another	-1156
▁cost	-1157
▁invest	-1158
▁little	-1159
ission	-1160
▁di	-1161
▁always	-1162
▁Sc	-1163
▁power	-1164
▁provide	-1165
▁company	-1166
15	-1167
ability	-1168
ior	-1169
▁come	-1170
of	-1171
](	-1172
▁met	-1173
▁next	-1174
▁1.	-1175
right	-1176
med	-1177
▁might	-1178
▁ca	-1179
^{	-1180
ret	-1181
▁Con	-1182
▁aff	-1183
▁Americ	-1184
▁less	-1185
ON	-1186
▁addition	-1187
▁function	-1188
▁opp	-1189
========	-1190
▁family	-1191
ccess	-1192
▁head	-1193
oss	-1194
err	-1195
▁group	-1196
▁put	-1197
type	-1198
▁school	-1199
▁something	-1200
▁light	-1201
▁experience	-1202
oci	-1203
▁ele	-1204
ma	-1205
▁sure	-1206
here	-1207
▁law	-1208
▁cr	-1209
4.	-1210
▁With	-1211
▁line	-1212
▁par	-1213
▁ve	-1214
ertain	-1215
▁bre	-1216
▁Z	-1217
▁applic	-1218
ray	-1219
▁grow	-1220
ering	-1221
▁pop	-1222
▁non	-1223
ained	-1224
▁able	-1225
aut	-1226
itive	-1227
use	-1228
ains	-1229
ently	-1230
">	-1231
▁value	-1232
▁big	-1233
▁Tr	-1234
itions	-1235
oint	-1236
▁dem	-1237
ention	-1238
▁area	-1239
▁services	-1240
▁She	-1241
▁elect	-1242
▁study	-1243
▁Su	-1244
▁give	-1245
▁mov	-1246
ird	-1247
▁friend	-1248
ann	-1249
iven	-1250
▁view	-1251
AT	-1252
aterial	-1253
▁gover	-1254
▁rese	-1255
▁Ph	-1256
▁At	-1257
▁No	-1258
ats	-1259
▁\[	-1260
▁against	-1261
▁opt	-1262
▁Bl	-1263
ource	-1264
▁sit	-1265
work	-1266
▁large	-1267
▁dev	-1268
){	-1269
ered	-1270
30	-1271
▁bra	-1272
▁control	-1273
AR	-1274
▁hard	-1275
▁bro	-1276
▁access	-1277
yl	-1278
▁days	-1279
▁treat	-1280
▁local	-1281
▁old	-1282
orn	-1283
ury	-1284
oid	-1285
oney	-1286
St	-1287
ott	-1288
▁Sp	-1289
▁mult	-1290
ery	-1291
por	-1292
▁chang	-1293
▁never	-1294
ination	-1295
▁leg	-1296
cing	-1297
ably	-1298
▁bas	-1299
▁That	-1300
▁method	-1301
▁change	-1302
▁hum	-1303
▁govern	-1304
oh	-1305
20	-1306
ems	-1307
▁prom	-1308
▁_	-1309
▁cap	-1310
ES	-1311
▁turn	-1312
vious	-1313
▁sing	-1314
ised	-1315
ww	-1316
▁special	-1317
▁got	-1318
▁ben	-1319
ours	-1320
▁These	-1321
eral	-1322
▁However	-1323
▁et	-1324
aim	-1325
ots	-1326
iron	-1327
▁tem	-1328
▁unt	-1329
omm	-1330
ording	-1331
raph	-1332
ulation	-1333
16	-1334
▁employ	-1335
ump	-1336
ards	-1337
ling	-1338
▁connect	-1339
▁US	-1340
The	-1341
▁ant	-1342
▁Our	-1343
▁eng	-1344
illion	-1345
iversity	-1346
▁lim	-1347
.,	-1348
()	-1349
ortun	-1350
arent	-1351
▁ask	-1352
▁intern	-1353
ived	-1354
▁mus	-1355
▁Res	-1356
5.	-1357
rist	-1358
▁@	-1359
50	-1360
ope	-1361
▁fac	-1362
fig	-1363
▁impro	-1364
▁beh	-1365
▁phot	-1366
utes	-1367
mb	-1368
▁belie	-1369
▁z	-1370
OR	-1371
urther	-1372
▁ident	-1373
hor	-1374
▁based	-1375
▁game	-1376
let	-1377
▁Col	-1378
ern	-1379
▁:	-1380
2,	-1381
ien	-1382
irc	-1383
,”	-1384
▁room	-1385
▁occ	-1386
▁online	-1387
://	-1388
▁Co	-1389
ured	-1390
idence	-1391
ream	-1392
AN	-1393
▁expect	-1394
▁understand	-1395
outh	-1396
▁[@	-1397
text	-1398
▁Comm	-1399
▁type	-1400
▁desc	-1401
ression	-1402
▁individ	-1403
▁x	-1404
sh	-1405
acter	-1406
val	-1407
ush	-1408
▁net	-1409
ina	-1410
"}	-1411
lf	-1412
ument	-1413
ending	-1414
▁(2	-1415
▁working	-1416
▁four	-1417
▁food	-1418
▁possible	-1419
3,	-1420
▁pot	-1421
omen	-1422
unt	-1423
▁low	-1424
5,	-1425
▁specific	-1426
fer	-1427
▁pract	-1428
▁complete	-1429
8.	-1430
11	-1431
att	-1432
7.	-1433
ither	-1434
▁making	-1435
▁webs	-1436
▁quality	-1437
▁Te	-1438
duct	-1439
ged	-1440
▁Or	-1441
fect	-1442
▁App	-1443
▁hist	-1444
▁left	-1445
▁signific	-1446
rop	-1447
▁My	-1448
▁results	-1449
▁site	-1450
sp	-1451
rac	-1452
ries	-1453
▁meet	-1454
▁sal	-1455
▁redu	-1456
▁es	-1457
▁children	-1458
],	-1459
icle	-1460
iting	-1461
▁ann	-1462
4,	-1463
iety	-1464
▁X	-1465
▁16	-1466
▁success	-1467
▁‘	-1468
▁having	-1469
▁job	-1470
▁win	-1471
▁pa	-1472
lection	-1473
▁profess	-1474
joy	-1475
▁Do	-1476
▁until	-1477
▁2.	-1478
orth	-1479
▁along	-1480
In	-1481
ended	-1482
rap	-1483
ajor	-1484
ead	-1485
▁event	-1486
ole	-1487
agement	-1488
▁material	-1489
▁individual	-1490
resent	-1491
▁today	-1492
▁often	-1493
set	-1494
▁example	-1495
▁hig	-1496
▁sever	-1497
▁One	-1498
▁mar	-1499
▁times	-1500
▁following	-1501
ocus	-1502
▁Can	-1503
}\	-1504
▁|	-1505
ta	-1506
ds	-1507
ique	-1508
▁course	-1509
aster	-1510
mm	-1511
ted	-1512
by	-1513
ising	-1514
▁vers	-1515
▁patients	-1516
ember	-1517
lish	-1518
▁check	-1519
▁products	-1520
yle	-1521
▁199	-1522
EN	-1523
▁priv	-1524
▁looking	-1525
▁account	-1526
▁particular	-1527
▁money	-1528
▁why	-1529
ffic	-1530
▁mean	-1531
▁students	-1532
▁typ	-1533
▁short	-1534
▁away	-1535
ively	-1536
▁invol	-1537
ories	-1538
▁offer	-1539
](#	-1540
▁dra	-1541
▁Man	-1542
▁past	-1543
▁review	-1544
▁near	-1545
ference	-1546
▁side	-1547
viron	-1548
▁cal	-1549
▁needs	-1550
▁**	-1551
▁protect	-1552
9.	-1553
▁indust	-1554
▁significant	-1555
▁field	-1556
load	-1557
▁—	-1558
▁main	-1559
▁move	-1560
aring	-1561
▁consider	-1562
":	-1563
iod	-1564
,"	-1565
▁detail	-1566
▁means	-1567
not	-1568
▁30	-1569
▁several	-1570
▁Mar	-1571
▁include	-1572
side	-1573
pos	-1574
▁development	-1575
▁meas	-1576
▁determ	-1577
roll	-1578
▁dri	-1579
▁require	-1580
▁After	-1581
▁least	-1582
▁toget	-1583
▁together	-1584
▁tre	-1585
▁major	-1586
uro	-1587
▁gr	-1588
▁done	-1589
▁benef	-1590
urs	-1591
▁given	-1592
yn	-1593
ilar	-1594
▁creat	-1595
oor	-1596
agn	-1597
ney	-1598
▁research	-1599
▁create	-1600
▁record	-1601
▁sw	-1602
▁house	-1603
▁hy	-1604
6.	-1605
13	-1606
conom	-1607
▁kind	-1608
ask	-1609
▁learn	-1610
ids	-1611
ances	-1612
inc	-1613
▁problem	-1614
▁government	-1615
ready	-1616
▁contact	-1617
▁mot	-1618
AS	-1619
room	-1620
isk	-1621
pecial	-1622
ipp	-1623
IT	-1624
▁enjoy	-1625
))	-1626
ane	-1627
▁common	-1628
▁reason	-1629
▁clear	-1630
18	-1631
ored	-1632
▁thing	-1633
▁orig	-1634
▁body	-1635
aining	-1636
17	-1637
▁air	-1638
▁community	-1639
▁Christ	-1640
▁certain	-1641
▁become	-1642
▁easy	-1643
atures	-1644
arget	-1645
ront	-1646
▁above	-1647
!!	-1648
uck	-1649
▁offic	-1650
ills	-1651
▁buy	-1652
ples	-1653
▁claim	-1654
ggest	-1655
ows	-1656
****	-1657
▁whether	-1658
ript	-1659
▁cells	-1660
itor	-1661
▁Cent	-1662
14	-1663
ai	-1664
rict	-1665
▁writ	-1666
▁pack	-1667
▁social	-1668
ley	-1669
face	-1670
for	-1671
▁focus	-1672
▁bit	-1673
▁website	-1674
utions	-1675
▁comb	-1676
▁cou	-1677
▁fore	-1678
▁court	-1679
ns	-1680
▁port	-1681
ape	-1682
str	-1683
▁far	-1684
▁vol	-1685
ides	-1686
▁called	-1687
aps	-1688
▁tot	-1689
▁100	-1690
▁space	-1691
▁soft	-1692
idd	-1693
▁la	-1694
▁Cal	-1695
▁struct	-1696
▁hold	-1697
▁Eng	-1698
▁enough	-1699
▁country	-1700
ograph	-1701
▁makes	-1702
▁already	-1703
▁Fl	-1704
▁key	-1705
▁fund	-1706
▁stat	-1707
aff	-1708
▁model	-1709
▁personal	-1710
vironment	-1711
▁known	-1712
▁size	-1713
▁--	-1714
ysis	-1715
▁suggest	-1716
▁vide	-1717
▁due	-1718
▁night	-1719
▁respect	-1720
▁across	-1721
▁prob	-1722
uture	-1723
▁works	-1724
▁land	-1725
▁object	-1726
▁super	-1727
▁14	-1728
▁members	-1729
alf	-1730
▁single	-1731
▁University	-1732
]{	-1733
▁others	-1734
▁self	-1735
',	-1736
ule	-1737
play	-1738
▁associ	-1739
▁Am	-1740
icy	-1741
▁period	-1742
/2	-1743
ergy	-1744
lished	-1745
▁strong	-1746
▁range	-1747
ification	-1748
eb	-1749
part	-1750
AL	-1751
cul	-1752
ttp	-1753
cell	-1754
▁May	-1755
-0	-1756
▁season	-1757
▁17	-1758
▁step	-1759
▁Car	-1760
▁God	-1761
▁war	-1762
?"	-1763
32	-1764
urity	-1765
▁men	-1766
▁page	-1767
▁pri	-1768
IS	-1769
ift	-1770
▁fre	-1771
▁further	-1772
▁ce	-1773
verage	-1774
▁educ	-1775
▁fail	-1776
▁amount	-1777
▁comes	-1778
ources	-1779
8,	-1780
▁human	-1781
▁lo	-1782
ister	-1783
▁perfect	-1784
▁discuss	-1785
▁either	-1786
▁tell	-1787
uff	-1788
▁opportun	-1789
▁later	-1790
▁below	-1791
bo	-1792
▁city	-1793
ding	-1794
ocument	-1795
▁mil	-1796
though	-1797
icro	-1798
▁ever	-1799
most	-1800
aken	-1801
augh	-1802
▁address	-1803
▁represent	-1804
ges	-1805
aces	-1806
▁file	-1807
▁doing	-1808
osp	-1809
ully	-1810
▁obs	-1811
▁getting	-1812
▁minutes	-1813
▁repl	-1814
▁beaut	-1815
ler	-1816
▁cond	-1817
▁visit	-1818
▁United	-1819
lu	-1820
▁talk	-1821
reg	-1822
ony	-1823
AC	-1824
IC	-1825
tr	-1826
1)	-1827
▁tax	-1828
▁appear	-1829
▁diff	-1830
▁question	-1831
▁fav	-1832
▁init	-1833
▁deal	-1834
sw	-1835
▁respons	-1836
▁text	-1837
▁enc	-1838
ental	-1839
▁corre	-1840
▁Sy	-1841
▁months	-1842
▁live	-1843
opy	-1844
▁Ne	-1845
gen	-1846
6,	-1847
▁13	-1848
▁actually	-1849
iff	-1850
▁phys	-1851
▁required	-1852
▁compet	-1853
40	-1854
▁Des	-1855
▁early	-1856
▁potential	-1857
▁future	-1858
ches	-1859
▁didn	-1860
iple	-1861
▁among	-1862
ians	-1863
▁mind	-1864
hib	-1865
▁content	-1866
▁State	-1867
▁</	-1868
▁quick	-1869
ams	-1870
▁econom	-1871
▁indic	-1872
▁Inst	-1873
▁ens	-1874
▁once	-1875
▁author	-1876
vert	-1877
▁rele	-1878
NA	-1879
▁select	-1880
▁price	-1881
▁wa	-1882
80	-1883
ED	-1884
▁close	-1885
▁press	-1886
ibility	-1887
▁err	-1888
ones	-1889
▁tool	-1890
▁mess	-1891
▁del	-1892
▁energy	-1893
▁wind	-1894
▁hours	-1895
▁cult	-1896
▁doesn	-1897
isc	-1898
▁treatment	-1899
itted	-1900
anks	-1901
acy	-1902
▁share	-1903
▁clean	-1904
asing	-1905
abel	-1906
amb	-1907
▁comput	-1908
ume	-1909
▁break	-1910
25	-1911
wards	-1912
▁says	-1913
ched	-1914
fact	-1915
rm	-1916
▁previous	-1917
▁compan	-1918
▁character	-1919
▁else	-1920
▁3.	-1921
▁Ass	-1922
back	-1923
▁bar	-1924
ino	-1925
▁En	-1926
une	-1927
▁particip	-1928
▁lay	-1929
▁Pr	-1930
7,	-1931
ogn	-1932
▁mom	-1933
frac	-1934
▁sho	-1935
rodu	-1936
wh	-1937
▁Cont	-1938
igure	-1939
▁similar	-1940
▁hot	-1941
▁relations	-1942
▁percent	-1943
▁cut	-1944
▁maint	-1945
▁begin	-1946
ilities	-1947
▁Rep	-1948
▁chall	-1949
▁women	-1950
▁compl	-1951
▁provided	-1952
▁million	-1953
▁property	-1954
]\]	-1955
action	-1956
CR	-1957
ued	-1958
che	-1959
unch	-1960
▁Intern	-1961
mber	-1962
ctor	-1963
▁Ste	-1964
▁Joh	-1965
▁young	-1966
ene	-1967
▁story	-1968
▁describ	-1969
sy	-1970
orts	-1971
ilt	-1972
▁American	-1973
▁11	-1974
▁dr	-1975
▁environment	-1976
▁camp	-1977
▁circ	-1978
go	-1979
▁install	-1980
▁Tra	-1981
60	-1982
ength	-1983
▁exist	-1984
▁Not	-1985
ators	-1986
▁Me	-1987
ault	-1988
▁sam	-1989
▁25	-1990
-3	-1991
uation	-1992
cle	-1993
ication	-1994
▁general	-1995
▁Che	-1996
▁started	-1997
ledge	-1998
hing	-1999
▁true	-2000
9,	-2001
▁necess	-2002
eter	-2003
ply	-2004
▁position	-2005
▁rate	-2006
▁polit	-2007
▁happen	-2008
▁various	-2009
ID	-2010
▁purch	-2011
)$	-2012
▁Med	-2013
enn	-2014
▁bring	-2015
▁subject	-2016
▁seen	-2017
sec	-2018
▁abs	-2019
▁came	-2020
iver	-2021
(\	-2022
ruction	-2023
ables	-2024
irm	-2025
▁yet	-2026
▁simple	-2027
].	-2028
▁Serv	-2029
▁path	-2030
▁crit	-2031
atural	-2032
▁log	-2033
->	-2034
▁took	-2035
▁won	-2036
clus	-2037
▁thought	-2038
▁Comp	-2039
ners	-2040
▁ess	-2041
▁walk	-2042
▁features	-2043
▁five	-2044
▁ey	-2045
▁24	-2046
▁recomm	-2047
▁obt	-2048
illed	-2049
imal	-2050
▁ste	-2051
ml	-2052
gra	-2053
ster	-2054
omes	-2055
pecially	-2056
af	-2057
▁Min	-2058
▁private	-2059
▁higher	-2060
▁provides	-2061
▁analysis	-2062
▁50	-2063
▁however	-2064
▁deb	-2065
book	-2066
ison	-2067
▁improve	-2068
▁action	-2069
22	-2070
ancial	-2071
▁br	-2072
son	-2073
▁pick	-2074
chie	-2075
▁deli	-2076
▁issues	-2077
]{}	-2078
▁By	-2079
▁training	-2080
▁Gu	-2081
▁(19	-2082
▁heart	-2083
▁While	-2084
▁music	-2085
▁whole	-2086
epend	-2087
abor	-2088
▁third	-2089
onse	-2090
▁risk	-2091
▁agree	-2092
▁industry	-2093
▁Euro	-2094
atory	-2095
▁Go	-2096
▁Your	-2097
▁total	-2098
▁arg	-2099
64	-2100
imate	-2101
▁performance	-2102
▁issue	-2103
▁request	-2104
▁pub	-2105
▁1,	-2106
▁pict	-2107
▁\[[@	-2108
▁TH	-2109
▁age	-2110
▁building	-2111
▁companies	-2112
▁application	-2113
olution	-2114
used	-2115
▁target	-2116
ological	-2117
angu	-2118
▁dig	-2119
▁norm	-2120
▁systems	-2121
cal	-2122
^2	-2123
▁upd	-2124
▁rad	-2125
▁mor	-2126
ends	-2127
▁cy	-2128
▁friends	-2129
lement	-2130
▁Some	-2131
▁areas	-2132
▁Now	-2133
RE	-2134
iation	-2135
▁increase	-2136
▁bi	-2137
▁user	-2138
gr	-2139
▁red	-2140
::	-2141
▁sound	-2142
**2	-2143
▁coun	-2144
▁vi	-2145
fl	-2146
su	-2147
▁bed	-2148
ection	-2149
▁search	-2150
▁changes	-2151
▁concer	-2152
}{	-2153
▁sent	-2154
▁accept	-2155
▁everything	-2156
OS	-2157
▁role	-2158
resh	-2159
▁jo	-2160
fully	-2161
ese	-2162
igned	-2163
ights	-2164
icult	-2165
▁Sec	-2166
▁estab	-2167
▁regard	-2168
urance	-2169
pped	-2170
▁neg	-2171
▁entire	-2172
▁questions	-2173
hers	-2174
▁video	-2175
now	-2176
▁dou	-2177
ensive	-2178
▁States	-2179
▁code	-2180
▁final	-2181
irt	-2182
▁stay	-2183
▁dom	-2184
apan	-2185
▁exc	-2186
▁cred	-2187
aging	-2188
▁Ro	-2189
.”	-2190
▁believe	-2191
▁Im	-2192
▁network	-2193
ops	-2194
▁image	-2195
iate	-2196
▁evidence	-2197
▁management	-2198
▁Wor	-2199
▁email	-2200
▁host	-2201
▁dam	-2202
▁likely	-2203
selves	-2204
▁Supp	-2205
▁someone	-2206
iful	-2207
0000	-2208
▁color	-2209
bl	-2210
▁stra	-2211
▁needed	-2212
▁prim	-2213
▁levels	-2214
▁went	-2215
gree	-2216
▁pie	-2217
lling	-2218
ires	-2219
▁media	-2220
▁taking	-2221
▁cases	-2222
ls	-2223
ype	-2224
▁idea	-2225
▁print	-2226
▁hope	-2227
▁pain	-2228
ands	-2229
ips	-2230
▁added	-2231
▁offers	-2232
pm	-2233
ises	-2234
reet	-2235
ned	-2236
▁series	-2237
▁198	-2238
ription	-2239
▁parent	-2240
▁Europe	-2241
head	-2242
▁card	-2243
lex	-2244
....	-2245
▁Ab	-2246
▁Gen	-2247
▁prior	-2248
ivity	-2249
▁history	-2250
▁mass	-2251
("	-2252
aged	-2253
▁table	-2254
▁Count	-2255
ival	-2256
▁technology	-2257
▁relationship	-2258
▁taken	-2259
▁please	-2260
ites	-2261
pack	-2262
▁problems	-2263
▁distrib	-2264
ung	-2265
▁!	-2266
ibr	-2267
▁Here	-2268
▁according	-2269
▁front	-2270
obal	-2271
▁version	-2272
▁travel	-2273
▁rather	-2274
▁imm	-2275
minist	-2276
▁)	-2277
rew	-2278
atter	-2279
▁sens	-2280
▁achie	-2281
ores	-2282
▁told	-2283
▁lower	-2284
▁Cour	-2285
▁difficult	-2286
▁Bo	-2287
ided	-2288
▁strateg	-2289
▁dise	-2290
_{\	-2291
aving	-2292
pping	-2293
ategory	-2294
istic	-2295
ried	-2296
▁matter	-2297
▁especially	-2298
33	-2299
fort	-2300
astic	-2301
artment	-2302
come	-2303
▁terms	-2304
br	-2305
▁City	-2306
▁pred	-2307
▁almost	-2308
▁half	-2309
▁Qu	-2310
gest	-2311
ager	-2312
▁seem	-2313
rt	-2314
▁party	-2315
▁tw	-2316
ball	-2317
▁miss	-2318
▁jud	-2319
empt	-2320
70	-2321
▁contrib	-2322
▁anything	-2323
▁observ	-2324
▁Acc	-2325
obile	-2326
itle	-2327
▁Per	-2328
▁link	-2329
▁web	-2330
▁conditions	-2331
itch	-2332
ET	-2333
▁events	-2334
ufact	-2335
▁Just	-2336
▁>	-2337
▁coll	-2338
▁groups	-2339
ground	-2340
▁upon	-2341
▁cannot	-2342
▁Japan	-2343
▁standard	-2344
▁cra	-2345
▁Pe	-2346
▁mach	-2347
▁pan	-2348
▁wond	-2349
$\	-2350
24	-2351
▁prote	-2352
ees	-2353
ules	-2354
ourn	-2355
urch	-2356
▁points	-2357
▁Dr	-2358
▁office	-2359
▁simply	-2360
▁living	-2361
75	-2362
▁blog	-2363
▁Int	-2364
ille	-2365
▁South	-2366
▁unique	-2367
EC	-2368
▁Mr	-2369
pper	-2370
▁answ	-2371
reme	-2372
rug	-2373
rences	-2374
▁shown	-2375
▁professional	-2376
imum	-2377
▁extra	-2378
▁paper	-2379
▁face	-2380
▁fall	-2381
ux	-2382
oved	-2383
rown	-2384
▁National	-2385
▁wide	-2386
inary	-2387
▁via	-2388
▁film	-2389
▁York	-2390
.2	-2391
▁growth	-2392
▁oil	-2393
▁quite	-2394
▁software	-2395
ging	-2396
▁emb	-2397
▁customers	-2398
name	-2399
▁approach	-2400
▁trying	-2401
▁brand	-2402
Th	-2403
100	-2404
time	-2405
alse	-2406
▁experien	-2407
aur	-2408
▁shows	-2409
ceed	-2410
▁impact	-2411
▁loss	-2412
▁consum	-2413
-4	-2414
iter	-2415
▁Dep	-2416
▁additional	-2417
▁base	-2418
99	-2419
oph	-2420
▁Bar	-2421
roup	-2422
▁multiple	-2423
lege	-2424
▁designed	-2425
▁assist	-2426
bb	-2427
▁contract	-2428
▁black	-2429
ception	-2430
mit	-2431
▁includes	-2432
▁aud	-2433
It	-2434
▁North	-2435
Con	-2436
▁affect	-2437
▁More	-2438
▁natural	-2439
▁style	-2440
▁prop	-2441
▁defin	-2442
▁financial	-2443
▁source	-2444
▁Pres	-2445
itten	-2446
▁pret	-2447
▁ut	-2448
oon	-2449
▁white	-2450
▁download	-2451
▁sat	-2452
AM	-2453
anced	-2454
▁collect	-2455
ension	-2456
▁ground	-2457
▁Us	-2458
▁Aust	-2459
uted	-2460
▁Act	-2461
▁Ke	-2462
rec	-2463
OM	-2464
▁knowledge	-2465
▁official	-2466
▁Part	-2467
ST	-2468
OT	-2469
apt	-2470
▁staff	-2471
▁received	-2472
▁foot	-2473
▁bad	-2474
▁probably	-2475
▁related	-2476
▁From	-2477
▁section	-2478
▁wall	-2479
▁etc	-2480
izing	-2481
lt	-2482
OU	-2483
dd	-2484
▁created	-2485
itting	-2486
▁games	-2487
▁favor	-2488
▁original	-2489
left	-2490
▁cover	-2491
ession	-2492
Ch	-2493
▁news	-2494
where	-2495
▁Fin	-2496
▁inj	-2497
();	-2498
▁included	-2499
eks	-2500
ache	-2501
▁Please	-2502
▁ways	-2503
▁engine	-2504
▁beautiful	-2505
▁investig	-2506
▁Gl	-2507
ditional	-2508
▁complex	-2509
▁Then	-2510
▁cause	-2511
etic	-2512
▁reported	-2513
ety	-2514
chan	-2515
▁4.	-2516
▁autom	-2517
▁everyone	-2518
▁six	-2519
▁ensure	-2520
▁options	-2521
▁recogn	-2522
▁effic	-2523
$.	-2524
overed	-2525
▁Jan	-2526
▁separ	-2527
▁fix	-2528
35	-2529
▁policy	-2530
▁death	-2531
▁subst	-2532
plement	-2533
omet	-2534
aced	-2535
▁date	-2536
▁langu	-2537
▁outside	-2538
▁box	-2539
▁solution	-2540
▁held	-2541
my	-2542
▁40	-2543
▁associated	-2544
▁recent	-2545
▁road	-2546
▁studies	-2547
_1	-2548
ressed	-2549
based	-2550
▁ago	-2551
eal	-2552
▁Cor	-2553
verse	-2554
ama	-2555
oper	-2556
▁John	-2557
na	-2558
roid	-2559
▁sum	-2560
88	-2561
erc	-2562
▁vari	-2563
mon	-2564
▁forward	-2565
▁Don	-2566
▁ill	-2567
▁der	-2568
ze	-2569
▁*/	-2570
▁decision	-2571
▁veh	-2572
▁choose	-2573
inks	-2574
▁activity	-2575
sequ	-2576
▁His	-2577
fo	-2578
▁Court	-2579
▁soon	-2580
▁continue	-2581
▁Inc	-2582
▁writing	-2583
▁den	-2584
____	-2585
▁production	-2586
▁fram	-2587
equ	-2588
▁manufact	-2589
▁watch	-2590
▁popular	-2591
▁cook	-2592
▁inside	-2593
▁Stud	-2594
27	-2595
▁response	-2596
AP	-2597
▁Ge	-2598
▁fire	-2599
▁Will	-2600
44	-2601
aching	-2602
key	-2603
oman	-2604
▁positive	-2605
$,	-2606
ogle	-2607
55	-2608
▁words	-2609
▁fit	-2610
mission	-2611
▁details	-2612
▁seems	-2613
itc	-2614
▁running	-2615
▁Reg	-2616
uge	-2617
▁Af	-2618
oring	-2619
▁longer	-2620
nov	-2621
▁coming	-2622
year	-2623
▁Sm	-2624
td	-2625
osing	-2626
ym	-2627
▁display	-2628
▁pers	-2629
iction	-2630
▁conduct	-2631
▁Apr	-2632
▁values	-2633
like	-2634
▁prevent	-2635
eta	-2636
div	-2637
▁Mc	-2638
iddle	-2639
▁weeks	-2640
▁security	-2641
▁usually	-2642
ties	-2643
▁located	-2644
LL	-2645
ached	-2646
▁medical	-2647
▁School	-2648
▁yourself	-2649
▁pric	-2650
▁weight	-2651
▁involved	-2652
▁prep	-2653
ION	-2654
▁Sim	-2655
▁member	-2656
▁necessary	-2657
23	-2658
▁See	-2659
cies	-2660
▁wanted	-2661
90	-2662
▁ep	-2663
▁feature	-2664
▁defend	-2665
▁receive	-2666
▁device	-2667
airs	-2668
idth	-2669
▁stop	-2670
▁introdu	-2671
▁isn	-2672
▁fast	-2673
▁Pol	-2674
▁exact	-2675
ana	-2676
▁nothing	-2677
idered	-2678
ari	-2679
▁effective	-2680
▁takes	-2681
2)	-2682
ming	-2683
▁safe	-2684
▁World	-2685
▁condition	-2686
1-	-2687
ude	-2688
uses	-2689
▁track	-2690
add	-2691
org	-2692
▁activities	-2693
olid	-2694
▁viol	-2695
▁ur	-2696
▁phone	-2697
▁exec	-2698
umb	-2699
▁currently	-2700
▁frequ	-2701
We	-2702
ief	-2703
▁effects	-2704
era	-2705
▁dest	-2706
▁expression	-2707
elt	-2708
▁learning	-2709
▁apply	-2710
▁compared	-2711
▁opportunity	-2712
▁appl	-2713
▁regular	-2714
▁Par	-2715
▁education	-2716
▁tru	-2717
('	-2718
▁adj	-2719
▁behav	-2720
▁throughout	-2721
▁Bra	-2722
def	-2723
▁compon	-2724
▁flow	-2725
erve	-2726
▁temper	-2727
atur	-2728
▁users	-2729
▁max	-2730
atform	-2731
lation	-2732
▁ready	-2733
▁region	-2734
▁pretty	-2735
uild	-2736
gment	-2737
▁increased	-2738
ada	-2739
▁Pat	-2740
▁consist	-2741
▁trial	-2742
que	-2743
orage	-2744
▁Ed	-2745
▁famil	-2746
▁ple	-2747
▁option	-2748
▁Gra	-2749
cil	-2750
▁da	-2751
▁Har	-2752
▁comfort	-2753
▁bott	-2754
▁implement	-2755
▁asked	-2756
▁First	-2757
▁national	-2758
▁practice	-2759
▁analy	-2760
des	-2761
▁lat	-2762
▁moment	-2763
mp	-2764
▁itself	-2765
ij	-2766
▁cross	-2767
uk	-2768
▁choice	-2769
▁customer	-2770
▁considered	-2771
ouch	-2772
LE	-2773
qrt	-2774
▁sle	-2775
▁AN	-2776
▁store	-2777
oura	-2778
▁block	-2779
▁instead	-2780
▁town	-2781
▁behind	-2782
▁Rec	-2783
package	-2784
off	-2785
▁easily	-2786
▁initial	-2787
Pro	-2788
▁div	-2789
▁mix	-2790
▁costs	-2791
▁screen	-2792
▁bal	-2793
▁ideas	-2794
ipe	-2795
pose	-2796
asc	-2797
itation	-2798
69	-2799
▁sche	-2800
ING	-2801
▁article	-2802
cont	-2803
▁attack	-2804
▁ability	-2805
▁County	-2806
▁shall	-2807
rs	-2808
▁bank	-2809
▁computer	-2810
▁assess	-2811
45	-2812
▁Pre	-2813
▁drug	-2814
▁skin	-2815
icles	-2816
▁average	-2817
▁built	-2818
▁types	-2819
▁influ	-2820
▁leave	-2821
▁sense	-2822
▁document	-2823
▁surface	-2824
▁Ju	-2825
hold	-2826
▁correct	-2827
▁countries	-2828
▁blood	-2829
field	-2830
▁happy	-2831
▁disease	-2832
▁feed	-2833
▁High	-2834
ho	-2835
ipment	-2836
iles	-2837
3)	-2838
azing	-2839
▁error	-2840
string	-2841
Ex	-2842
PS	-2843
▁Oct	-2844
▁announ	-2845
,000	-2846
lier	-2847
resp	-2848
wise	-2849
▁Park	-2850
AD	-2851
▁pattern	-2852
aves	-2853
iring	-2854
da	-2855
▁insurance	-2856
▁structure	-2857
▁IN	-2858
▁drive	-2859
▁click	-2860
▁II	-2861
aches	-2862
ris	-2863
▁speak	-2864
icated	-2865
---	-2866
▁sequ	-2867
▁board	-2868
col	-2869
▁recently	-2870
▁directly	-2871
▁location	-2872
ga	-2873
▁political	-2874
▁Mark	-2875
imately	-2876
earch	-2877
ests	-2878
ender	-2879
▁nice	-2880
////	-2881
▁Since	-2882
▁?	-2883
▁attempt	-2884
▁driv	-2885
▁modern	-2886
▁ver	-2887
▁clients	-2888
▁stri	-2889
▁items	-2890
itution	-2891
CC	-2892
▁rights	-2893
▁Aut	-2894
]\].	-2895
▁kids	-2896
▁cand	-2897
ales	-2898
ependent	-2899
irth	-2900
================	-2901
▁###	-2902
▁expected	-2903
▁President	-2904
28	-2905
▁occur	-2906
▁{#	-2907
▁experim	-2908
▁normal	-2909
▁word	-2910
-5	-2911
37	-2912
▁themselves	-2913
itchen	-2914
▁Of	-2915
▁April	-2916
▁anyone	-2917
▁allows	-2918
▁March	-2919
65	-2920
▁worth	-2921
▁mechan	-2922
▁immed	-2923
▁cam	-2924
▁swe	-2925
▁Ag	-2926
▁written	-2927
▁demon	-2928
▁sett	-2929
▁variety	-2930
▁recommend	-2931
▁squ	-2932
▁regul	-2933
▁Char	-2934
▁administ	-2935
ridge	-2936
hern	-2937
▁cool	-2938
▁match	-2939
▁eval	-2940
▁round	-2941
▁materials	-2942
▁saf	-2943
ederal	-2944
IG	-2945
▁wonder	-2946
amed	-2947
▁Pa	-2948
vant	-2949
▁sus	-2950
uary	-2951
38	-2952
▁highly	-2953
▁late	-2954
▁Most	-2955
bf	-2956
▁images	-2957
".	-2958
▁Also	-2959
▁parts	-2960
www	-2961
eed	-2962
▁Soc	-2963
▁relative	-2964
▁providing	-2965
▁hon	-2966
▁5.	-2967
▁difference	-2968
▁draw	-2969
usepackage	-2970
▁worked	-2971
odes	-2972
new	-2973
▁excell	-2974
39	-2975
201	-2976
▁international	-2977
Cl	-2978
opt	-2979
▁sil	-2980
▁dog	-2981
▁clin	-2982
▁avoid	-2983
▁challeng	-2984
aly	-2985
▁trust	-2986
▁sales	-2987
▁measure	-2988
bor	-2989
▁rout	-2990
▁quickly	-2991
mitted	-2992
▁looks	-2993
▁copy	-2994
▁wood	-2995
▁legal	-2996
▁patient	-2997
▁decl	-2998
▁former	-2999
oll	-3000
CH	-3001
▁players	-3002
▁deep	-3003
▁leaders	-3004
▁factors	-3005
reng	-3006
▁ones	-3007
▁write	-3008
▁heav	-3009
aign	-3010
▁Cons	-3011
):	-3012
rast	-3013
▁UK	-3014
▁couple	-3015
▁message	-3016
▁language	-3017
mat	-3018
oke	-3019
▁save	-3020
ament	-3021
▁War	-3022
▁saw	-3023
▁Val	-3024
▁China	-3025
▁cat	-3026
▁tour	-3027
atives	-3028
▁projects	-3029
oud	-3030
▁limited	-3031
asons	-3032
▁rev	-3033
cast	-3034
▁America	-3035
inter	-3036
▁load	-3037
▁goal	-3038
pri	-3039
isions	-3040
hood	-3041
▁West	-3042
ening	-3043
▁arch	-3044
▁insp	-3045
▁skills	-3046
osis	-3047
▁...	-3048
▁micro	-3049
▁fra	-3050
ications	-3051
ags	-3052
rows	-3053
▁resources	-3054
▁credit	-3055
uration	-3056
▁Get	-3057
▁global	-3058
▁plant	-3059
29	-3060
ald	-3061
▁Austral	-3062
▁developed	-3063
▁states	-3064
▁gir	-3065
▁reading	-3066
icense	-3067
▁Mon	-3068
▁leading	-3069
▁Thanks	-3070
▁Sw	-3071
▁lives	-3072
omp	-3073
▁center	-3074
▁release	-3075
34	-3076
light	-3077
▁Sept	-3078
▁Dav	-3079
ss	-3080
lim	-3081
rant	-3082
▁Off	-3083
ham	-3084
vey	-3085
ences	-3086
▁essential	-3087
▁collection	-3088
▁speed	-3089
▁June	-3090
▁floor	-3091
▁answer	-3092
▁commit	-3093
▁lost	-3094
▁Health	-3095
▁mention	-3096
▁transfer	-3097
▁reve	-3098
▁lines	-3099
▁”	-3100
▁park	-3101
68	-3102
order	-3103
▁Are	-3104
▁client	-3105
▁length	-3106
▁benefits	-3107
▁id	-3108
ha	-3109
▁dire	-3110
▁cancer	-3111
EM	-3112
▁Aug	-3113
▁http	-3114
▁English	-3115
▁wrong	-3116
isf	-3117
▁Art	-3118
CT	-3119
erous	-3120
▁0.0	-3121
▁Afric	-3122
▁sn	-3123
▁described	-3124
ocal	-3125
▁Every	-3126
▁meeting	-3127
▁methods	-3128
rel	-3129
********	-3130
▁%	-3131
▁gives	-3132
ington	-3133
▁prec	-3134
oo	-3135
▁2018	-3136
▁serious	-3137
67	-3138
word	-3139
igma	-3140
▁dat	-3141
▁interesting	-3142
▁platform	-3143
▁bud	-3144
▁ball	-3145
▁Center	-3146
EL	-3147
▁Ob	-3148
itable	-3149
▁safety	-3150
><	-3151
▁vac	-3152
!"	-3153
▁sun	-3154
▁physical	-3155
▁attention	-3156
ocol	-3157
▁THE	-3158
oting	-3159
AA	-3160
▁proced	-3161
▁poly	-3162
arily	-3163
unction	-3164
▁Although	-3165
▁El	-3166
▁rates	-3167
▁latest	-3168
▁mount	-3169
▁International	-3170
▁programs	-3171
▁`	-3172
▁House	-3173
48	-3174
umn	-3175
▁Germ	-3176
ht	-3177
ober	-3178
ospital	-3179
▁streng	-3180
▁Brit	-3181
Fig	-3182
▁qual	-3183
▁Fr	-3184
more	-3185
ague	-3186
nes	-3187
amic	-3188
../	-3189
▁sell	-3190
▁$$\	-3191
istics	-3192
US	-3193
▁door	-3194
uel	-3195
lick	-3196
];	-3197
▁60	-3198
▁enter	-3199
illing	-3200
▁197	-3201
▁bath	-3202
▁chance	-3203
▁student	-3204
board	-3205
izes	-3206
▁fresh	-3207
ronic	-3208
▁population	-3209
▁became	-3210
itary	-3211
▁giving	-3212
oms	-3213
aries	-3214
▁nature	-3215
▁fine	-3216
▁performed	-3217
ades	-3218
IM	-3219
▁cele	-3220
▁sites	-3221
▁instru	-3222
▁appropri	-3223
▁Even	-3224
▁Wind	-3225
ny	-3226
▁und	-3227
▁completely	-3228
▁mobile	-3229
uth	-3230
ecause	-3231
elta	-3232
adem	-3233
▁tools	-3234
▁Any	-3235
▁amazing	-3236
▁lif	-3237
▁daily	-3238
_2	-3239
▁Many	-3240
)\	-3241
95	-3242
▁lack	-3243
▁somet	-3244
oice	-3245
▁Feb	-3246
▁Ac	-3247
itute	-3248
▁emerg	-3249
oles	-3250
▁increasing	-3251
▁situation	-3252
▁published	-3253
oly	-3254
rial	-3255
▁basis	-3256
▁impl	-3257
UR	-3258
▁chem	-3259
rim	-3260
ournal	-3261
irit	-3262
▁Red	-3263
▁San	-3264
▁equipment	-3265
ought	-3266
cks	-3267
▁morning	-3268
haps	-3269
▁individuals	-3270
see	-3271
▁flu	-3272
▁suff	-3273
ttps	-3274
▁System	-3275
▁purchase	-3276
▁tele	-3277
▁altern	-3278
ror	-3279
▁pressure	-3280
▁aw	-3281
▁showed	-3282
▁commer	-3283
▁concent	-3284
▁summer	-3285
▁books	-3286
▁clos	-3287
▁broad	-3288
label	-3289
ava	-3290
▁surpr	-3291
pec	-3292
ils	-3293
▁active	-3294
▁traditional	-3295
▁fair	-3296
▁contain	-3297
▁Her	-3298
aby	-3299
▁parents	-3300
▁acqu	-3301
▁organization	-3302
▁demonstr	-3303
hat	-3304
▁huge	-3305
▁hit	-3306
▁respond	-3307
▁Trans	-3308
▁solutions	-3309
}(	-3310
▁campaign	-3311
▁green	-3312
aling	-3313
▁replace	-3314
36	-3315
aintiff	-3316
wood	-3317
▁Why	-3318
▁began	-3319
▁inform	-3320
▁mother	-3321
▁encoura	-3322
▁cert	-3323
▁param	-3324
▁0,	-3325
estern	-3326
▁limit	-3327
▁According	-3328
▁Air	-3329
▁machine	-3330
▁July	-3331
▁Sol	-3332
ica	-3333
▁fully	-3334
hest	-3335
▁regist	-3336
ishing	-3337
▁2,	-3338
▁decided	-3339
▁goes	-3340
▁stock	-3341
ucle	-3342
▁note	-3343
▁detect	-3344
▁career	-3345
ara	-3346
▁22	-3347
▁Day	-3348
▁January	-3349
▁extreme	-3350
▁refer	-3351
▁anim	-3352
▁plans	-3353
▁princ	-3354
rapy	-3355
yond	-3356
ky	-3357
▁Em	-3358
IP	-3359
band	-3360
▁Other	-3361
▁rat	-3362
arter	-3363
▁title	-3364
▁neigh	-3365
hy	-3366
sych	-3367
▁marketing	-3368
▁degree	-3369
mathcal	-3370
sqrt	-3371
▁hous	-3372
▁La	-3373
pite	-3374
▁seek	-3375
▁heat	-3376
pi	-3377
▁applications	-3378
▁resid	-3379
▁Category	-3380
▁capt	-3381
▁purpose	-3382
wor	-3383
place	-3384
▁excellent	-3385
▁Calif	-3386
▁send	-3387
▁Fran	-3388
class	-3389
▁particularly	-3390
enge	-3391
▁enh	-3392
▁primary	-3393
▁21	-3394
rought	-3395
▁AP	-3396
▁Up	-3397
▁hair	-3398
▁October	-3399
▁concept	-3400
▁remember	-3401
mas	-3402
fficient	-3403
▁reach	-3404
cember	-3405
▁Bro	-3406
pha	-3407
▁expert	-3408
enty	-3409
▁led	-3410
▁magn	-3411
▁Service	-3412
▁achieve	-3413
▁Ser	-3414
▁rent	-3415
▁bur	-3416
zy	-3417
▁devices	-3418
▁advant	-3419
▁requirements	-3420
▁gas	-3421
▁mid	-3422
http	-3423
leg	-3424
▁hear	-3425
▁quant	-3426
/(	-3427
▁employees	-3428
itely	-3429
▁exerc	-3430
OD	-3431
▁digital	-3432
▁ten	-3433
ternal	-3434
iber	-3435
▁therefore	-3436
▁pet	-3437
change	-3438
▁Department	-3439
200	-3440
▁TV	-3441
range	-3442
OL	-3443
no	-3444
▁except	-3445
▁hands	-3446
▁28	-3447
▁greater	-3448
▁factor	-3449
ography	-3450
▁anti	-3451
▁remain	-3452
term	-3453
ey	-3454
▁IS	-3455
▁September	-3456
het	-3457
▁police	-3458
**3	-3459
osition	-3460
▁carry	-3461
26	-3462
inated	-3463
▁Once	-3464
▁Mich	-3465
▁song	-3466
▁adult	-3467
▁aim	-3468
Re	-3469
▁decre	-3470
▁teac	-3471
▁protein	-3472
▁conc	-3473
▁slow	-3474
▁spect	-3475
▁determine	-3476
Name	-3477
▁models	-3478
▁sold	-3479
ocr	-3480
▁towards	-3481
ondon	-3482
▁sale	-3483
sg	-3484
▁Net	-3485
▁integr	-3486
top	-3487
▁India	-3488
▁myself	-3489
▁convers	-3490
ares	-3491
▁hor	-3492
▁approx	-3493
▁playing	-3494
ancy	-3495
▁Dis	-3496
▁numbers	-3497
tee	-3498
uments	-3499
▁stage	-3500
▁culture	-3501
▁understanding	-3502
You	-3503
▁sometimes	-3504
pone	-3505
iated	-3506
▁Associ	-3507
gy	-3508
mark	-3509
1}	-3510
code	-3511
respond	-3512
olute	-3513
▁places	-3514
▁Def	-3515
▁mut	-3516
▁presented	-3517
cription	-3518
▁Ear	-3519
bit	-3520
ibly	-3521
▁tried	-3522
AB	-3523
dom	-3524
▁economic	-3525
▁commercial	-3526
inding	-3527
▁Mus	-3528
▁thus	-3529
la	-3530
▁birth	-3531
▁Coun	-3532
▁restaur	-3533
▁December	-3534
▁ded	-3535
▁temperature	-3536
arant	-3537
▁Face	-3538
▁ge	-3539
▁kitchen	-3540
ornia	-3541
▁prem	-3542
▁gave	-3543
▁Well	-3544
▁Over	-3545
aled	-3546
▁Mod	-3547
raw	-3548
▁accur	-3549
▁aware	-3550
▁satisf	-3551
iding	-3552
pen	-3553
▁surv	-3554
data	-3555
▁mag	-3556
OP	-3557
▁fat	-3558
▁helps	-3559
2-	-3560
▁picture	-3561
▁beginning	-3562
ani	-3563
clude	-3564
▁construction	-3565
arden	-3566
gram	-3567
▁calcul	-3568
angle	-3569
mu	-3570
▁},	-3571
lying	-3572
cript	-3573
ivil	-3574
▁useful	-3575
▁prices	-3576
▁Google	-3577
umber	-3578
▁Sch	-3579
▁continu	-3580
▁element	-3581
▁vehicle	-3582
istry	-3583
utive	-3584
▁false	-3585
ressive	-3586
▁starting	-3587
,\	-3588
▁files	-3589
iam	-3590
annel	-3591
▁double	-3592
▁allowed	-3593
▁ang	-3594
urt	-3595
▁Each	-3596
▁moving	-3597
▁OF	-3598
▁Great	-3599
▁comment	-3600
▁;	-3601
ously	-3602
lin	-3603
▁gar	-3604
▁Post	-3605
TM	-3606
▁Direct	-3607
▁void	-3608
rief	-3609
▁mis	-3610
▁properties	-3611
▁Dist	-3612
▁although	-3613
▁storage	-3614
▁adjust	-3615
ovember	-3616
▁dark	-3617
47	-3618
”.	-3619
▁piece	-3620
▁touch	-3621
▁status	-3622
▁unit	-3623
▁thinking	-3624
mod	-3625
▁tast	-3626
IV	-3627
overn	-3628
▁California	-3629
▁Dem	-3630
ibrary	-3631
ocks	-3632
vis	-3633
file	-3634
▁background	-3635
▁input	-3636
▁regarding	-3637
▁([	-3638
▁pull	-3639
▁Inter	-3640
AG	-3641
▁exactly	-3642
▁resist	-3643
▁creating	-3644
ville	-3645
▁gradu	-3646
▁successful	-3647
▁prefer	-3648
actions	-3649
▁uses	-3650
_\	-3651
ogen	-3652
▁stress	-3653
▁Sen	-3654
▁favorite	-3655
▁statement	-3656
▁force	-3657
oming	-3658
▁vict	-3659
▁charge	-3660
▁wasn	-3661
ensity	-3662
▁candid	-3663
IR	-3664
▁ST	-3665
ube	-3666
▁controll	-3667
▁August	-3668
▁observed	-3669
▁Add	-3670
▁ter	-3671
▁station	-3672
▁felt	-3673
▁Because	-3674
_0	-3675
miss	-3676
IL	-3677
▁obtained	-3678
body	-3679
▁elements	-3680
▁growing	-3681
▁interview	-3682
ounds	-3683
▁Suppose	-3684
▁damage	-3685
▁healthy	-3686
▁trip	-3687
▁reduce	-3688
▁identify	-3689
iable	-3690
▁memory	-3691
rem	-3692
▁significantly	-3693
down	-3694
▁gets	-3695
▁reflect	-3696
▁ri	-3697
▁compar	-3698
arc	-3699
▁transport	-3700
▁context	-3701
▁sleep	-3702
▁org	-3703
rupt	-3704
▁London	-3705
▁constant	-3706
rix	-3707
▁trade	-3708
▁Wash	-3709
ero	-3710
zz	-3711
▁Home	-3712
▁overall	-3713
ida	-3714
▁stru	-3715
▁CD	-3716
▁hour	-3717
▁opin	-3718
uit	-3719
▁tal	-3720
oto	-3721
rench	-3722
21	-3723
▁Sub	-3724
▁mi	-3725
▁ir	-3726
▁depend	-3727
▁Company	-3728
wide	-3729
▁cas	-3730
▁deliver	-3731
66	-3732
▁23	-3733
▁predict	-3734
▁-0.	-3735
▁planning	-3736
▁ult	-3737
raft	-3738
▁firm	-3739
▁consult	-3740
String	-3741
▁Jo	-3742
▁partners	-3743
▁Tw	-3744
▁Russ	-3745
▁November	-3746
▁followed	-3747
▁Free	-3748
▁Rem	-3749
▁conv	-3750
▁paid	-3751
iately	-3752
apter	-3753
▁interested	-3754
▁Thank	-3755
▁cry	-3756
></	-3757
▁27	-3758
▁Sund	-3759
nown	-3760
▁pen	-3761
▁effort	-3762
Val	-3763
▁Black	-3764
▁established	-3765
%)	-3766
vere	-3767
▁gold	-3768
▁saying	-3769
▁glass	-3770
▁budget	-3771
▁benefit	-3772
▁Cong	-3773
BC	-3774
amm	-3775
▁±	-3776
attle	-3777
▁6.	-3778
▁brought	-3779
▁meaning	-3780
▁generally	-3781
4)	-3782
aker	-3783
icon	-3784
▁appropriate	-3785
\[	-3786
▁aspect	-3787
▁Whe	-3788
▁existing	-3789
▁requires	-3790
itter	-3791
▁photos	-3792
▁graph	-3793
▁eyes	-3794
▁presence	-3795
▁whose	-3796
itude	-3797
▁2017	-3798
▁earlier	-3799
▁King	-3800
▁stuff	-3801
Ph	-3802
enses	-3803
inate	-3804
▁entry	-3805
▁basic	-3806
gl	-3807
rig	-3808
vest	-3809
▁beyond	-3810
49	-3811
riday	-3812
▁string	-3813
▁dro	-3814
urrent	-3815
▁innov	-3816
▁==	-3817
▁played	-3818
ext	-3819
unk	-3820
▁dead	-3821
▁Bus	-3822
▁larger	-3823
▁connection	-3824
Id	-3825
reed	-3826
ulated	-3827
CL	-3828
ett	-3829
orge	-3830
▁corpor	-3831
▁server	-3832
▁son	-3833
▁threat	-3834
▁electric	-3835
▁dry	-3836
untu	-3837
▁released	-3838
ruit	-3839
▁correspond	-3840
▁sort	-3841
▁valid	-3842
▁Facebook	-3843
▁spend	-3844
itect	-3845
▁demand	-3846
▁serve	-3847
▁wish	-3848
Res	-3849
▁blue	-3850
▁nut	-3851
▁warm	-3852
▁president	-3853
box	-3854
▁Yes	-3855
▁star	-3856
▁player	-3857
▁highest	-3858
acity	-3859
▁ord	-3860
iance	-3861
char	-3862
▁setting	-3863
=\	-3864
urb	-3865
ruary	-3866
▁35	-3867
85	-3868
▁histor	-3869
▁Del	-3870
rote	-3871
ying	-3872
iant	-3873
▁diagn	-3874
▁produce	-3875
bur	-3876
▁arriv	-3877
▁fab	-3878
izations	-3879
▁reasons	-3880
▁middle	-3881
ford	-3882
▁Pal	-3883
▁himself	-3884
eters	-3885
▁estim	-3886
▁heard	-3887
▁Commun	-3888
▁changed	-3889
▁repe	-3890
▁thous	-3891
▁fight	-3892
▁General	-3893
icip	-3894
semb	-3895
▁celebr	-3896
▁capital	-3897
▁2*	-3898
▁dyn	-3899
▁notice	-3900
ooth	-3901
▁Out	-3902
▁surround	-3903
bon	-3904
▁Techn	-3905
▁band	-3906
ferences	-3907
lor	-3908
encies	-3909
ipl	-3910
ened	-3911
77	-3912
▁layer	-3913
")	-3914
▁/*	-3915
▁Group	-3916
Type	-3917
▁Good	-3918
▁tick	-3919
▁rules	-3920
"}).	-3921
olic	-3922
▁poor	-3923
▁output	-3924
bar	-3925
▁defendant	-3926
▁goals	-3927
rie	-3928
▁applied	-3929
▁sample	-3930
▁wel	-3931
iques	-3932
▁Trump	-3933
omb	-3934
force	-3935
▁defined	-3936
MS	-3937
▁furn	-3938
lig	-3939
state	-3940
▁investment	-3941
bib	-3942
▁wait	-3943
▁alone	-3944
-6	-3945
begin	-3946
▁European	-3947
▁club	-3948
undred	-3949
▁imag	-3950
▁afford	-3951
edding	-3952
sum	-3953
▁negative	-3954
▁profession	-3955
overy	-3956
▁immediately	-3957
bert	-3958
▁cash	-3959
▁woman	-3960
xy	-3961
▁wild	-3962
▁movie	-3963
▁White	-3964
OC	-3965
gar	-3966
oted	-3967
▁nation	-3968
▁summ	-3969
table	-3970
▁map	-3971
ula	-3972
▁Commission	-3973
ambda	-3974
▁bound	-3975
▁February	-3976
▁Friday	-3977
▁central	-3978
hel	-3979
▁responsible	-3980
▁agreement	-3981
usion	-3982
▁families	-3983
▁Fo	-3984
▁previously	-3985
inf	-3986
ken	-3987
▁sav	-3988
▁internet	-3989
▁names	-3990
yp	-3991
▁knew	-3992
▁reports	-3993
31	-3994
▁parties	-3995
▁Cle	-3996
▁award	-3997
▁2019	-3998
list	-3999
^{\	-4000
}$$	-4001
▁finally	-4002
▁liter	-4003
▁Super	-4004
▁cit	-4005
▁dim	-4006
▁apart	-4007
▁dream	-4008
▁scient	-4009
▁express	-4010
▁26	-4011
▁critical	-4012
ffee	-4013
ENT	-4014
fered	-4015
89	-4016
▁businesses	-4017
▁Law	-4018
▁Jes	-4019
▁feeling	-4020
▁Bank	-4021
▁acid	-4022
▁fa	-4023
▁finding	-4024
bt	-4025
sub	-4026
▁photo	-4027
ulf	-4028
▁Thus	-4029
:00	-4030
▁claims	-4031
rep	-4032
▁income	-4033
▁schools	-4034
▁msg	-4035
▁evalu	-4036
Ob	-4037
46	-4038
▁grant	-4039
▁Ret	-4040
▁Further	-4041
▁selection	-4042
▁boy	-4043
inner	-4044
▁distribution	-4045
▁task	-4046
▁species	-4047
▁fem	-4048
▁sem	-4049
$$	-4050
▁pow	-4051
▁Read	-4052
▁item	-4053
▁Indian	-4054
▁East	-4055
▁relig	-4056
osure	-4057
▁rule	-4058
▁respectively	-4059
html	-4060
▁opportunities	-4061
▁Tod	-4062
▁definitely	-4063
▁direction	-4064
▁guarant	-4065
▁During	-4066
SS	-4067
plate	-4068
▁establish	-4069
▁eye	-4070
▁selected	-4071
▁eat	-4072
atus	-4073
▁spent	-4074
▁motion	-4075
▁smart	-4076
▁apprec	-4077
▁federal	-4078
▁behavior	-4079
ii	-4080
UT	-4081
▁actual	-4082
▁ing	-4083
▁absolute	-4084
▁exhib	-4085
▁Republic	-4086
▁vir	-4087
▁Govern	-4088
▁offered	-4089
▁Board	-4090
▁owners	-4091
▁2016	-4092
▁Bel	-4093
▁reference	-4094
▁yes	-4095
▁functions	-4096
▁expand	-4097
▁brain	-4098
▁window	-4099
▁challenge	-4100
▁Design	-4101
▁turned	-4102
▁roll	-4103
iture	-4104
▁Satur	-4105
▁guide	-4106
▁billion	-4107
▁certainly	-4108
▁-2	-4109
span	-4110
▁Mond	-4111
▁train	-4112
▁appoint	-4113
▁80	-4114
▁Je	-4115
▁maybe	-4116
SP	-4117
▁static	-4118
▁independent	-4119
▁race	-4120
▁£	-4121
View	-4122
dro	-4123
▁Research	-4124
▁easier	-4125
▁supply	-4126
/>	-4127
2}	-4128
▁emot	-4129
ded	-4130
▁Found	-4131
▁posted	-4132
Cont	-4133
pective	-4134
▁Sunday	-4135
▁identified	-4136
▁Washington	-4137
▁hom	-4138
▁Mor	-4139
▁45	-4140
▁config	-4141
SE	-4142
▁contains	-4143
▁mer	-4144
▁efficient	-4145
ka	-4146
aligned	-4147
▁straight	-4148
▁=>	-4149
▁counter	-4150
▁determined	-4151
-8	-4152
▁bottom	-4153
▁largest	-4154
Ar	-4155
▁medium	-4156
▁nearly	-4157
▁offering	-4158
▁pictures	-4159
▁virt	-4160
eration	-4161
▁relevant	-4162
▁3,	-4163
aught	-4164
▁util	-4165
ndom	-4166
He	-4167
abase	-4168
▁pool	-4169
▁steps	-4170
▁communication	-4171
▁Green	-4172
▁nucle	-4173
alt	-4174
vention	-4175
▁sex	-4176
▁tim	-4177
rive	-4178
▁smaller	-4179
gs	-4180
lo	-4181
▁Street	-4182
▁drink	-4183
▁Japanese	-4184
lands	-4185
iency	-4186
▁holid	-4187
▁feet	-4188
▁PR	-4189
▁hundred	-4190
▁{\	-4191
▁Franc	-4192
▁signal	-4193
▁repair	-4194
▁strength	-4195
do	-4196
icks	-4197
iny	-4198
▁spot	-4199
▁index	-4200
▁7.	-4201
▁Public	-4202
▁phase	-4203
▁Oh	-4204
▁stories	-4205
▁born	-4206
mpt	-4207
▁pages	-4208
point	-4209
▁clinical	-4210
▁scen	-4211
▁thank	-4212
ios	-4213
amma	-4214
atever	-4215
▁moved	-4216
clusion	-4217
aper	-4218
oma	-4219
▁traffic	-4220
▁ap	-4221
sigma	-4222
ologies	-4223
▁produced	-4224
▁incor	-4225
▁protection	-4226
▁strategy	-4227
duc	-4228
▁29	-4229
▁experienced	-4230
▁Christmas	-4231
▁70	-4232
works	-4233
▁paint	-4234
ael	-4235
▁hotel	-4236
▁trend	-4237
▁advice	-4238
List	-4239
▁manufacture	-4240
▁Book	-4241
using	-4242
▁Rel	-4243
▁Phil	-4244
ipping	-4245
▁q	-4246
▁appeal	-4247
▁OR	-4248
▁solid	-4249
▁Windows	-4250
▁movement	-4251
001	-4252
useum	-4253
▁spirit	-4254
▁farm	-4255
▁People	-4256
▁obtain	-4257
ev	-4258
EO	-4259
▁90	-4260
ially	-4261
▁military	-4262
men	-4263
arr	-4264
▁delivery	-4265
▁completed	-4266
ustr	-4267
▁cru	-4268
▁Port	-4269
▁sen	-4270
▁psych	-4271
▁wants	-4272
▁David	-4273
▁teams	-4274
atically	-4275
▁Sur	-4276
II	-4277
▁doll	-4278
▁served	-4279
▁grand	-4280
BS	-4281
▁Br	-4282
▁package	-4283
uy	-4284
well	-4285
▁Saturday	-4286
▁operation	-4287
arrow	-4288
▁samples	-4289
otes	-4290
▁scale	-4291
▁Two	-4292
acing	-4293
▁Ant	-4294
▁Work	-4295
▁slight	-4296
▁forms	-4297
▁thanks	-4298
▁hus	-4299
aughter	-4300
▁guid	-4301
theta	-4302
phone	-4303
▁father	-4304
▁du	-4305
test	-4306
▁Use	-4307
▁plus	-4308
rael	-4309
den	-4310
▁helped	-4311
▁letter	-4312
▁attract	-4313
5)	-4314
▁eight	-4315
As	-4316
▁sust	-4317
▁eth	-4318
venue	-4319
▁spread	-4320
▁shop	-4321
▁caused	-4322
▁bill	-4323
▁PC	-4324
itors	-4325
gn	-4326
porary	-4327
▁baby	-4328
]).	-4329
▁remove	-4330
▁wonderful	-4331
▁Paul	-4332
ico	-4333
▁Det	-4334
▁null	-4335
▁join	-4336
▁college	-4337
▁views	-4338
▁Click	-4339
▁Council	-4340
▁century	-4341
▁hop	-4342
▁cast	-4343
alpha	-4344
▁spl	-4345
▁wife	-4346
▁homes	-4347
▁Another	-4348
▁society	-4349
▁update	-4350
▁Services	-4351
house	-4352
▁inhib	-4353
▁onto	-4354
anging	-4355
78	-4356
ira	-4357
▁doc	-4358
▁Look	-4359
▁figure	-4360
▁stream	-4361
▁Monday	-4362
▁advantage	-4363
▁batter	-4364
▁named	-4365
▁advert	-4366
mbol	-4367
lay	-4368
▁(*	-4369
iar	-4370
▁cold	-4371
iling	-4372
▁default	-4373
▁Tex	-4374
▁Internet	-4375
▁extremely	-4376
▁Fe	-4377
▁loved	-4378
▁truly	-4379
comp	-4380
olf	-4381
▁College	-4382
▁payment	-4383
hens	-4384
▁Canada	-4385
▁seven	-4386
▁efforts	-4387
▁remov	-4388
▁science	-4389
▁¥	-4390
▁powerful	-4391
-00	-4392
▁8.	-4393
▁Dec	-4394
ius	-4395
▁Prof	-4396
▁handle	-4397
▁announced	-4398
-\	-4399
▁monitor	-4400
inity	-4401
▁AM	-4402
vision	-4403
▁showing	-4404
ste	-4405
▁mill	-4406
hol	-4407
▁origin	-4408
▁comments	-4409
net	-4410
▁progress	-4411
??	-4412
Sh	-4413
▁majority	-4414
▁decor	-4415
▁([@	-4416
▁shape	-4417
ancing	-4418
▁www	-4419
▁alle	-4420
▁Business	-4421
▁•	-4422
-10	-4423
▁connected	-4424
▁interp	-4425
▁talking	-4426
za	-4427
▁occas	-4428
ashion	-4429
agram	-4430
▁testing	-4431
▁lots	-4432
Object	-4433
▁district	-4434
▁attend	-4435
oul	-4436
ses	-4437
▁deriv	-4438
▁Therefore	-4439
▁Check	-4440
▁assum	-4441
▁looked	-4442
▁driving	-4443
iment	-4444
▁finish	-4445
▁becomes	-4446
3-	-4447
▁annual	-4448
▁prepared	-4449
TP	-4450
▁reduced	-4451
icate	-4452
▁fear	-4453
▁visual	-4454
free	-4455
▁vill	-4456
▁workers	-4457
this	-4458
▁Data	-4459
▁closed	-4460
isation	-4461
▁relax	-4462
isms	-4463
dule	-4464
ulations	-4465
▁Jesus	-4466
▁hospital	-4467
anc	-4468
▁placed	-4469
▁construct	-4470
CD	-4471
▁separate	-4472
▁Gold	-4473
▁tree	-4474
▁components	-4475
▁Make	-4476
▁Program	-4477
hors	-4478
▁rock	-4479
▁peace	-4480
▁assert	-4481
▁tend	-4482
▁flex	-4483
▁ax	-4484
ech	-4485
ranch	-4486
▁French	-4487
▁remains	-4488
▁(200	-4489
▁dang	-4490
trans	-4491
▁strugg	-4492
▁weekend	-4493
ban	-4494
▁2015	-4495
ado	-4496
ipped	-4497
uty	-4498
▁shared	-4499
▁maintain	-4500
▁participants	-4501
active	-4502
▁proceed	-4503
▁comfortable	-4504
▁metal	-4505
▁Mo	-4506
▁rap	-4507
▁master	-4508
eds	-4509
ilon	-4510
▁combination	-4511
date	-4512
reate	-4513
▁Develop	-4514
rees	-4515
▁Australia	-4516
▁clearly	-4517
▁Sam	-4518
▁lab	-4519
▁Best	-4520
▁internal	-4521
▁British	-4522
cles	-4523
▁Micro	-4524
▁perhaps	-4525
▁standards	-4526
▁Note	-4527
▁volunt	-4528
itness	-4529
error	-4530
▁circum	-4531
▁Wed	-4532
▁Jack	-4533
▁Israel	-4534
otic	-4535
▁ideal	-4536
▁core	-4537
▁links	-4538
▁wrote	-4539
▁Ins	-4540
orney	-4541
▁animals	-4542
500	-4543
utor	-4544
▁theory	-4545
')	-4546
▁Under	-4547
mathbb	-4548
ails	-4549
98	-4550
ki	-4551
▁helping	-4552
▁pros	-4553
SA	-4554
▁Find	-4555
▁button	-4556
ago	-4557
▁jobs	-4558
▁drop	-4559
▁score	-4560
fs	-4561
▁shot	-4562
tra	-4563
care	-4564
▁har	-4565
▁distance	-4566
▁USA	-4567
▁array	-4568
▁opening	-4569
▁differences	-4570
▁obvious	-4571
inese	-4572
▁disp	-4573
▁harm	-4574
▁secure	-4575
▁balance	-4576
▁church	-4577
▁Today	-4578
▁instance	-4579
▁aren	-4580
ato	-4581
inct	-4582
▁tiss	-4583
▁Class	-4584
orrow	-4585
▁ahead	-4586
▁Mac	-4587
▁otherwise	-4588
");	-4589
▁husband	-4590
abin	-4591
▁capacity	-4592
▁injury	-4593
ae	-4594
*,	-4595
▁unf	-4596
▁happened	-4597
DA	-4598
▁classes	-4599
▁techniques	-4600
}^{	-4601
▁format	-4602
../../	-4603
but	-4604
▁pair	-4605
▁transform	-4606
▁reserv	-4607
97	-4608
▁exercise	-4609
▁collabor	-4610
enance	-4611
▁Mat	-4612
▁alternative	-4613
▁rot	-4614
▁weather	-4615
PR	-4616
▁Like	-4617
▁covered	-4618
▁processing	-4619
▁developing	-4620
amin	-4621
▁Mem	-4622
▁tum	-4623
▁sources	-4624
▁maximum	-4625
▁proposed	-4626
▁fant	-4627
▁failed	-4628
▁diet	-4629
▁biggest	-4630
▁push	-4631
▁trou	-4632
▁substant	-4633
App	-4634
▁divid	-4635
▁units	-4636
▁processes	-4637
▁appears	-4638
▁gift	-4639
▁random	-4640
▁prepar	-4641
OW	-4642
ports	-4643
▁Hall	-4644
▁IT	-4645
▁Ev	-4646
▁(201	-4647
▁economy	-4648
acters	-4649
upp	-4650
▁conven	-4651
▁vs	-4652
▁command	-4653
▁operations	-4654
▁approximately	-4655
▁Web	-4656
▁Association	-4657
log	-4658
▁coffee	-4659
▁Both	-4660
soft	-4661
▁estate	-4662
▁Francis	-4663
▁ign	-4664
▁switch	-4665
▁Att	-4666
▁motor	-4667
42	-4668
▁owner	-4669
Figure	-4670
cd	-4671
PA	-4672
▁Play	-4673
6)	-4674
inger	-4675
▁polic	-4676
print	-4677
▁citiz	-4678
▁opinion	-4679
▁μ	-4680
▁Id	-4681
▁gene	-4682
▁operating	-4683
rad	-4684
ctors	-4685
ulate	-4686
▁Down	-4687
▁mole	-4688
tes	-4689
▁3*	-4690
▁passed	-4691
▁failure	-4692
iced	-4693
known	-4694
▁Flor	-4695
▁multi	-4696
▁communities	-4697
with	-4698
▁supported	-4699
rd	-4700
▁foreign	-4701
▁faith	-4702
ocation	-4703
▁architect	-4704
ubuntu	-4705
To	-4706
▁Sl	-4707
standing	-4708
▁height	-4709
ocket	-4710
▁Educ	-4711
▁er	-4712
57	-4713
eps	-4714
gery	-4715
lambda	-4716
▁treated	-4717
▁hearing	-4718
▁2014	-4719
▁volume	-4720
43	-4721
asy	-4722
▁lik	-4723
▁flav	-4724
▁runs	-4725
▁fixed	-4726
document	-4727
bra	-4728
rey	-4729
▁(1	-4730
▁optim	-4731
▁Ben	-4732
▁Last	-4733
▁toward	-4734
▁technical	-4735
width	-4736
iers	-4737
▁situ	-4738
▁hab	-4739
mathrm	-4740
▁AND	-4741
▁voice	-4742
▁Office	-4743
▁bow	-4744
▁10.	-4745
▁colle	-4746
▁2012	-4747
▁gain	-4748
▁civil	-4749
####	-4750
▁plaintiff	-4751
NS	-4752
ourney	-4753
▁couldn	-4754
▁session	-4755
▁explore	-4756
perty	-4757
▁indu	-4758
▁partner	-4759
▁director	-4760
Is	-4761
▁${\	-4762
▁chemical	-4763
▁fig	-4764
▁href	-4765
▁fabric	-4766
▁DNA	-4767
▁mentioned	-4768
icians	-4769
▁continued	-4770
▁dress	-4771
ano	-4772
▁Institute	-4773
▁Mal	-4774
▁funds	-4775
▁sto	-4776
icine	-4777
▁panel	-4778
hips	-4779
▁James	-4780
▁/**	-4781
▁advanced	-4782
▁wire	-4783
▁Fore	-4784
▁Hot	-4785
▁hyp	-4786
▁fill	-4787
ston	-4788
coming	-4789
▁facilities	-4790
▁^	-4791
rier	-4792
▁sports	-4793
1]	-4794
},	-4795
▁flo	-4796
▁heavy	-4797
▁rich	-4798
▁kept	-4799
58	-4800
▁ID	-4801
0,000	-4802
ortunately	-4803
roph	-4804
▁Chinese	-4805
atin	-4806
abled	-4807
▁breat	-4808
▁miles	-4809
▁appe	-4810
▁organizations	-4811
▁secret	-4812
ya	-4813
~~	-4814
▁Africa	-4815
”,	-4816
▁sympt	-4817
▁Exp	-4818
▁Vis	-4819
▁thick	-4820
▁Texas	-4821
▁listed	-4822
▁challenges	-4823
rite	-4824
▁Which	-4825
▁finished	-4826
▁4,	-4827
▁RE	-4828
look	-4829
▁novel	-4830
▁minimum	-4831
▁sharing	-4832
▁Mary	-4833
▁plants	-4834
▁disapp	-4835
gal	-4836
▁characters	-4837
Col	-4838
▁mode	-4839
▁mort	-4840
sm	-4841
▁legis	-4842
▁Thurs	-4843
▁pieces	-4844
rical	-4845
▁antib	-4846
▁older	-4847
▁Church	-4848
▁influence	-4849
▁wear	-4850
▁frame	-4851
▁actions	-4852
ota	-4853
rate	-4854
▁Met	-4855
▁propos	-4856
▁Tues	-4857
▁haven	-4858
oses	-4859
▁Sun	-4860
▁seeing	-4861
▁rob	-4862
eria	-4863
value	-4864
ffect	-4865
▁Hist	-4866
▁manage	-4867
gu	-4868
▁sets	-4869
rum	-4870
▁spring	-4871
hi	-4872
▁Jer	-4873
▁labor	-4874
omy	-4875
▁List	-4876
idential	-4877
▁-1	-4878
▁camera	-4879
▁creative	-4880
▁CH	-4881
▁smooth	-4882
▁brother	-4883
▁Av	-4884
▁rank	-4885
MA	-4886
▁database	-4887
▁Jud	-4888
▁driver	-4889
▁rare	-4890
▁garden	-4891
▁north	-4892
▁gone	-4893
▁sand	-4894
▁catch	-4895
▁District	-4896
clusive	-4897
▁wedding	-4898
FL	-4899
▁row	-4900
▁south	-4901
ommod	-4902
▁00	-4903
mail	-4904
▁sweet	-4905
▁fish	-4906
▁quarter	-4907
PL	-4908
amily	-4909
▁typically	-4910
▁adding	-4911
ias	-4912
SD	-4913
cel	-4914
▁portion	-4915
▁Christian	-4916
irmed	-4917
▁lock	-4918
▁bag	-4919
▁unc	-4920
▁Rich	-4921
▁rooms	-4922
Value	-4923
▁component	-4924
▁contrast	-4925
gor	-4926
arian	-4927
▁reviews	-4928
itz	-4929
▁learned	-4930
▁Sa	-4931
door	-4932
▁joint	-4933
▁winter	-4934
tered	-4935
▁stated	-4936
▁mission	-4937
▁Mart	-4938
px	-4939
▁AD	-4940
▁Have	-4941
▁laws	-4942
▁manner	-4943
▁Sing	-4944
▁adapt	-4945
▁cards	-4946
▁experiences	-4947
▁Ann	-4948
▁Bre	-4949
odies	-4950
▁gun	-4951
▁mist	-4952
▁die	-4953
fast	-4954
▁Open	-4955
▁discl	-4956
▁domain	-4957
SC	-4958
▁phen	-4959
going	-4960
0.0	-4961
ser	-4962
56	-4963
lock	-4964
▁manager	-4965
▁Thursday	-4966
▁fields	-4967
▁street	-4968
▁records	-4969
RA	-4970
▁PM	-4971
▁wat	-4972
▁Ange	-4973
▁River	-4974
kin	-4975
▁Form	-4976
▁vote	-4977
▁Western	-4978
asure	-4979
uled	-4980
▁Plan	-4981
▁brief	-4982
▁advance	-4983
▁2013	-4984
apers	-4985
▁meant	-4986
▁conference	-4987
▁sequence	-4988
▁calls	-4989
othing	-4990
osit	-4991
▁truth	-4992
▁decisions	-4993
▁Tuesday	-4994
▁Cr	-4995
big	-4996
▁rapid	-4997
▁therapy	-4998
▁policies	-4999
▁Michael	-5000
ups	-5001
}_{	-5002
osen	-5003
akers	-5004
▁§	-5005
▁coord	-5006
hand	-5007
▁burn	-5008
ifying	-5009
inn	-5010
▁mo	-5011
▁flat	-5012
▁noted	-5013
▁lic	-5014
▁Call	-5015
▁agency	-5016
▁circumst	-5017
▁liqu	-5018
▁academ	-5019
▁competition	-5020
▁environmental	-5021
▁experts	-5022
▁Time	-5023
▁Where	-5024
------------	-5025
param	-5026
uman	-5027
▁happens	-5028
▁unless	-5029
sey	-5030
Data	-5031
▁2010	-5032
PC	-5033
*(	-5034
▁News	-5035
▁incred	-5036
▁ice	-5037
▁CO	-5038
▁changing	-5039
uries	-5040
▁coverage	-5041
oyal	-5042
▁mic	-5043
▁Power	-5044
anged	-5045
▁died	-5046
▁stick	-5047
osite	-5048
mar	-5049
▁bul	-5050
▁leader	-5051
▁professionals	-5052
▁properly	-5053
▁genes	-5054
ructure	-5055
▁Democr	-5056
▁specifically	-5057
▁bedroom	-5058
▁Bay	-5059
▁colors	-5060
▁retail	-5061
ads	-5062
roy	-5063
▁tests	-5064
"/>	-5065
▁pal	-5066
Table	-5067
▁Wednes	-5068
▁sufficient	-5069
eline	-5070
Un	-5071
othes	-5072
rane	-5073
▁susp	-5074
phi	-5075
▁conflic	-5076
▁consequ	-5077
▁journey	-5078
-7	-5079
This	-5080
▁Congress	-5081
IF	-5082
imb	-5083
▁1/	-5084
▁Elect	-5085
▁measures	-5086
rehens	-5087
▁NOT	-5088
▁Science	-5089
▁thousands	-5090
▁pray	-5091
▁resol	-5092
▁beg	-5093
▁schedule	-5094
▁Sum	-5095
▁football	-5096
▁Spe	-5097
▁leaves	-5098
No	-5099
▁Mill	-5100
icit	-5101
iability	-5102
▁authors	-5103
▁Jew	-5104
▁incorpor	-5105
ellow	-5106
▁Thom	-5107
omic	-5108
umin	-5109
▁32	-5110
ona	-5111
▁Vol	-5112
▁accommod	-5113
ensions	-5114
rian	-5115
})	-5116
▁Lear	-5117
++	-5118
▁menu	-5119
▁decide	-5120
▁follows	-5121
inder	-5122
▁throw	-5123
▁entertain	-5124
▁Year	-5125
▁suppl	-5126
////////	-5127
rho	-5128
▁Table	-5129
▁keeping	-5130
▁judgment	-5131
▁rid	-5132
ework	-5133
▁attrib	-5134
▁bathroom	-5135
▁Phys	-5136
rc	-5137
otion	-5138
▁500	-5139
▁License	-5140
▁guess	-5141
▁Management	-5142
▁generation	-5143
▁Mag	-5144
▁Finally	-5145
▁dram	-5146
▁whatever	-5147
▁mal	-5148
▁accepted	-5149
▁raised	-5150
▁conver	-5151
▁infect	-5152
▁discussion	-5153
ishes	-5154
▁numerous	-5155
▁reality	-5156
▁launch	-5157
▁fold	-5158
▁isol	-5159
▁roof	-5160
EX	-5161
▁label	-5162
▁documents	-5163
omin	-5164
▁removed	-5165
▁relationships	-5166
▁administration	-5167
▁4*	-5168
▁teaching	-5169
berg	-5170
▁Inte	-5171
estival	-5172
mathbf	-5173
▁forget	-5174
▁Lord	-5175
▁Whether	-5176
▁lov	-5177
▁focused	-5178
▁exchange	-5179
▁relatively	-5180
▁Press	-5181
▁Const	-5182
▁nor	-5183
esome	-5184
delta	-5185
79	-5186
5%	-5187
▁van	-5188
▁bird	-5189
phas	-5190
________	-5191
▁Gr	-5192
BA	-5193
▁leads	-5194
▁generated	-5195
▁Hel	-5196
▁arm	-5197
▁occup	-5198
estic	-5199
▁syn	-5200
orter	-5201
▁survey	-5202
▁becoming	-5203
▁debt	-5204
▁Market	-5205
▁Florida	-5206
▁shopping	-5207
▁Wednesday	-5208
igation	-5209
osph	-5210
▁reb	-5211
hent	-5212
▁evening	-5213
▁filed	-5214
▁famous	-5215
▁practices	-5216
▁importance	-5217
▁Color	-5218
outhern	-5219
pecific	-5220
▁detailed	-5221
▁Love	-5222
▁earth	-5223
▁doctor	-5224
],[@	-5225
night	-5226
iled	-5227
count	-5228
▁Rev	-5229
▁equal	-5230
▁bright	-5231
nu	-5232
size	-5233
▁Ill	-5234
▁Care	-5235
▁Life	-5236
▁wouldn	-5237
▁discover	-5238
▁Disc	-5239
+\	-5240
▁cars	-5241
gorith	-5242
▁Before	-5243
azon	-5244
▁upper	-5245
▁sector	-5246
▁channel	-5247
59	-5248
related	-5249
▁conserv	-5250
▁Lake	-5251
▁opened	-5252
▁England	-5253
▁despite	-5254
orthern	-5255
▁returned	-5256
▁furniture	-5257
▁fashion	-5258
▁concerns	-5259
▁steel	-5260
▁combined	-5261
cap	-5262
▁craft	-5263
▁cheap	-5264
▁fan	-5265
▁formed	-5266
rab	-5267
▁loan	-5268
What	-5269
▁interface	-5270
▁Sal	-5271
▁Ham	-5272
Im	-5273
TR	-5274
▁mice	-5275
▁android	-5276
";	-5277
▁Take	-5278
▁Rob	-5279
abilities	-5280
▁vit	-5281
▁findings	-5282
▁officials	-5283
▁Foundation	-5284
▁delic	-5285
racy	-5286
PE	-5287
pected	-5288
▁fans	-5289
▁fees	-5290
▁derivative	-5291
zen	-5292
asks	-5293
▁ingred	-5294
ugg	-5295
ait	-5296
cher	-5297
▁Club	-5298
met	-5299
▁vent	-5300
▁interests	-5301
▁Using	-5302
▁Commit	-5303
aming	-5304
▁poll	-5305
▁slightly	-5306
▁dedicated	-5307
▁reasonable	-5308
rome	-5309
lete	-5310
▁Pet	-5311
▁daughter	-5312
▁$2	-5313
▁0;	-5314
▁Test	-5315
▁plate	-5316
▁waste	-5317
And	-5318
▁luck	-5319
▁brows	-5320
▁plenty	-5321
▁counsel	-5322
▁Its	-5323
▁guys	-5324
nel	-5325
/201	-5326
poses	-5327
▁lose	-5328
cluded	-5329
▁waiting	-5330
▁synt	-5331
▁compr	-5332
▁carried	-5333
▁Their	-5334
▁egg	-5335
idden	-5336
54	-5337
icity	-5338
lementary	-5339
▁Who	-5340
CE	-5341
▁ton	-5342
▁agg	-5343
▁leaving	-5344
ria	-5345
▁edge	-5346
▁conducted	-5347
▁Central	-5348
hem	-5349
▁arrange	-5350
▁Ber	-5351
▁crim	-5352
▁Project	-5353
▁reached	-5354
▁improved	-5355
▁Custom	-5356
icial	-5357
▁5,	-5358
▁Hill	-5359
▁defense	-5360
▁300	-5361
▁subsequ	-5362
under	-5363
▁markets	-5364
▁elim	-5365
ilit	-5366
▁mostly	-5367
fit	-5368
▁tag	-5369
▁fee	-5370
alle	-5371
▁Information	-5372
▁36	-5373
▁alb	-5374
▁$(	-5375
▁100%	-5376
▁audience	-5377
▁Does	-5378
▁info	-5379
▁maintenance	-5380
UN	-5381
▁ec	-5382
▁recip	-5383
]{},	-5384
▁tips	-5385
:0	-5386
▁veget	-5387
▁Alex	-5388
▁chair	-5389
86	-5390
▁Road	-5391
▁knows	-5392
)(	-5393
▁neighbor	-5394
▁-3	-5395
▁subsc	-5396
FP	-5397
▁Top	-5398
▁earn	-5399
▁scene	-5400
▁cleaning	-5401
▁replacement	-5402
▁Mount	-5403
▁friendly	-5404
▁continues	-5405
▁TO	-5406
▁vision	-5407
▁Child	-5408
requ	-5409
▁Big	-5410
pload	-5411
▁expensive	-5412
exp	-5413
▁Island	-5414
bi	-5415
▁Sil	-5416
cular	-5417
▁agent	-5418
▁willing	-5419
▁extract	-5420
▁objects	-5421
▁fr	-5422
▁mental	-5423
▁frequency	-5424
▁Back	-5425
ersion	-5426
Tr	-5427
▁suitable	-5428
▁sched	-5429
▁election	-5430
▁Build	-5431
▁Second	-5432
▁welcome	-5433
roud	-5434
▁![	-5435
▁(\[	-5436
ampions	-5437
riage	-5438
▁Water	-5439
▁profile	-5440
▁intended	-5441
ita	-5442
▁regions	-5443
76	-5444
▁Set	-5445
▁parameters	-5446
▁rise	-5447
sembly	-5448
▁resulting	-5449
▁interpret	-5450
ented	-5451
▁introduced	-5452
TH	-5453
▁simpl	-5454
endar	-5455
▁allowing	-5456
▁procedure	-5457
beta	-5458
▁cris	-5459
▁Government	-5460
win	-5461
▁affected	-5462
life	-5463
▁Cap	-5464
▁symptoms	-5465
▁resolution	-5466
▁Social	-5467
▁passion	-5468
▁restaurant	-5469
aser	-5470
▁Fig	-5471
▁mail	-5472
▁department	-5473
▁revealed	-5474
▁girl	-5475
▁surgery	-5476
▁purposes	-5477
vin	-5478
▁sch	-5479
▁2011	-5480
▁Only	-5481
RNA	-5482
▁argument	-5483
rete	-5484
▁sustain	-5485
▁9.	-5486
▁Miss	-5487
▁trail	-5488
▁containing	-5489
▁leadership	-5490
▁witness	-5491
▁sea	-5492
▁beach	-5493
▁helpful	-5494
▁updated	-5495
▁neut	-5496
▁approved	-5497
▁Education	-5498
▁contem	-5499
▁PD	-5500
Get	-5501
▁IP	-5502
▁auto	-5503
LC	-5504
▁script	-5505
▁housing	-5506
▁node	-5507
unning	-5508
▁whom	-5509
▁enhance	-5510
length	-5511
▁buying	-5512
▁recommended	-5513
▁cities	-5514
▁signed	-5515
ander	-5516
▁explain	-5517
▁Div	-5518
▁kid	-5519
▁Lou	-5520
▁nav	-5521
▁category	-5522
▁classic	-5523
▁invention	-5524
eq	-5525
arest	-5526
▁Union	-5527
ompl	-5528
*.	-5529
▁Next	-5530
▁integ	-5531
53	-5532
{{\	-5533
uable	-5534
▁chick	-5535
▁corner	-5536
TS	-5537
▁minor	-5538
▁Director	-5539
▁residents	-5540
osh	-5541
▁radio	-5542
▁facility	-5543
UL	-5544
▁sounds	-5545
hab	-5546
▁crow	-5547
▁excited	-5548
▁missing	-5549
▁Bill	-5550
Le	-5551
▁depending	-5552
▁Hy	-5553
▁Mex	-5554
▁landsc	-5555
▁discount	-5556
▁plastic	-5557
▁expressed	-5558
52	-5559
▁starts	-5560
anta	-5561
▁Tem	-5562
▁island	-5563
▁filter	-5564
▁Tom	-5565
https	-5566
▁epis	-5567
lla	-5568
▁immun	-5569
▁bond	-5570
dis	-5571
▁48	-5572
▁assistance	-5573
lines	-5574
▁que	-5575
▁width	-5576
▁square	-5577
-9	-5578
can	-5579
▁pin	-5580
ingly	-5581
▁victim	-5582
CA	-5583
▁gall	-5584
▁electro	-5585
▁locations	-5586
▁consistent	-5587
path	-5588
igen	-5589
▁hyper	-5590
▁Mil	-5591
parent	-5592
▁holiday	-5593
▁dial	-5594
▁Sk	-5595
▁eventually	-5596
ini	-5597
which	-5598
▁worry	-5599
▁Di	-5600
kay	-5601
alls	-5602
▁Apple	-5603
▁functional	-5604
orb	-5605
ette	-5606
▁tun	-5607
▁fuel	-5608
▁kill	-5609
▁Arch	-5610
▁advent	-5611
▁severe	-5612
▁holding	-5613
▁wine	-5614
▁trees	-5615
▁transl	-5616
0)	-5617
▁journal	-5618
▁filled	-5619
▁suit	-5620
▁patterns	-5621
▁diss	-5622
▁causes	-5623
▁forces	-5624
OV	-5625
var	-5626
▁strategies	-5627
▁Bur	-5628
ifications	-5629
▁UN	-5630
▁instit	-5631
▁listen	-5632
▁German	-5633
ographic	-5634
▁collected	-5635
▁circumstances	-5636
dy	-5637
▁dinner	-5638
▁stim	-5639
▁managed	-5640
▁remaining	-5641
7)	-5642
oding	-5643
▁weak	-5644
▁issued	-5645
▁resource	-5646
▁Exper	-5647
▁agreed	-5648
▁seconds	-5649
▁funding	-5650
▁library	-5651
}_	-5652
▁Ve	-5653
▁cart	-5654
▁ended	-5655
Ps	-5656
▁Camp	-5657
▁corporate	-5658
ditionally	-5659
ifts	-5660
▁committed	-5661
comes	-5662
▁https	-5663
▁snow	-5664
▁animal	-5665
igration	-5666
▁increases	-5667
▁walking	-5668
▁transition	-5669
essions	-5670
▁recept	-5671
▁Follow	-5672
▁accompl	-5673
▁$$	-5674
▁belong	-5675
▁bought	-5676
ocy	-5677
llig	-5678
ship	-5679
▁proof	-5680
▁external	-5681
▁adults	-5682
▁arrest	-5683
▁hydro	-5684
▁accident	-5685
▁Committee	-5686
▁guy	-5687
▁minute	-5688
▁responsibility	-5689
41	-5690
But	-5691
▁guests	-5692
rag	-5693
Text	-5694
.)	-5695
▁Vir	-5696
▁ride	-5697
▁2008	-5698
rror	-5699
aks	-5700
▁examples	-5701
▁algorith	-5702
▁Chic	-5703
▁Development	-5704
TER	-5705
▁rub	-5706
▁Star	-5707
▁description	-5708
cm	-5709
illa	-5710
iples	-5711
ervice	-5712
▁centre	-5713
▁raise	-5714
▁warrant	-5715
▁watching	-5716
An	-5717
▁installed	-5718
iration	-5719
▁Obama	-5720
Al	-5721
▁ban	-5722
▁apparent	-5723
▁encourage	-5724
1){	-5725
rene	-5726
▁ratio	-5727
ima	-5728
▁196	-5729
▁spending	-5730
▁suggested	-5731
iat	-5732
▁density	-5733
grade	-5734
▁lit	-5735
▁fol	-5736
▁tested	-5737
▁5*	-5738
▁Review	-5739
▁Special	-5740
▁selling	-5741
▁fib	-5742
cknow	-5743
▁vary	-5744
▁joined	-5745
▁aspects	-5746
▁involve	-5747
▁delay	-5748
hetic	-5749
▁jump	-5750
▁absolutely	-5751
▁Mer	-5752
▁citizens	-5753
▁cream	-5754
▁Engine	-5755
▁protected	-5756
bre	-5757
▁deg	-5758
▁notes	-5759
▁Bet	-5760
▁anc	-5761
▁Tur	-5762
▁volunte	-5763
▁Bi	-5764
▁facts	-5765
▁measured	-5766
stream	-5767
▁visitors	-5768
df	-5769
▁posts	-5770
▁Online	-5771
▁recovery	-5772
ivered	-5773
▁confirm	-5774
▁receiving	-5775
orry	-5776
cious	-5777
}{\	-5778
▁Brown	-5779
py	-5780
▁employee	-5781
▁designs	-5782
iences	-5783
▁Wood	-5784
eah	-5785
▁31	-5786
▁Calcul	-5787
▁automatically	-5788
sl	-5789
▁chain	-5790
▁tit	-5791
If	-5792
▁doubt	-5793
▁calling	-5794
uster	-5795
▁proteins	-5796
▁yield	-5797
▁Smith	-5798
▁Figure	-5799
▁female	-5800
supp	-5801
user	-5802
▁Profess	-5803
▁discussed	-5804
96	-5805
apping	-5806
▁ris	-5807
▁eating	-5808
▁honest	-5809
{1	-5810
▁motiv	-5811
▁proud	-5812
gers	-5813
▁cup	-5814
▁seat	-5815
▁stores	-5816
▁mm	-5817
▁Str	-5818
▁Fire	-5819
▁researc	-5820
])	-5821
▁cycle	-5822
▁initi	-5823
▁stone	-5824
▁brings	-5825
▁Germany	-5826
▁Word	-5827
▁confidence	-5828
▁courses	-5829
EE	-5830
▁France	-5831
rip	-5832
othe	-5833
include	-5834
▁liquid	-5835
▁articles	-5836
pat	-5837
▁37	-5838
▁freed	-5839
reek	-5840
erate	-5841
▁indicated	-5842
!!!	-5843
enced	-5844
▁buff	-5845
▁possibly	-5846
''	-5847
▁Pen	-5848
▁coast	-5849
▁videos	-5850
▁1)	-5851
▁interaction	-5852
▁corresponding	-5853
▁Mass	-5854
▁installation	-5855
▁taste	-5856
cluding	-5857
▁tow	-5858
▁appeared	-5859
▁indicate	-5860
▁registered	-5861
▁&&	-5862
ician	-5863
▁putting	-5864
antly	-5865
▁desk	-5866
▁Minister	-5867
File	-5868
▁laun	-5869
edy	-5870
pet	-5871
▁ship	-5872
▁Those	-5873
▁recorded	-5874
iary	-5875
▁electronic	-5876
sa	-5877
xture	-5878
:30	-5879
▁Eag	-5880
cohol	-5881
▁asking	-5882
outs	-5883
▁shut	-5884
▁resistance	-5885
▁practical	-5886
abet	-5887
antic	-5888
▁teacher	-5889
▁identity	-5890
rect	-5891
▁pregn	-5892
▁Que	-5893
▁George	-5894
times	-5895
iveness	-5896
▁recipe	-5897
bour	-5898
▁girls	-5899
▁assign	-5900
▁thoughts	-5901
▁mg	-5902
4-	-5903
▁seemed	-5904
▁Stand	-5905
▁topic	-5906
▁industrial	-5907
▁root	-5908
▁tissue	-5909
▁promote	-5910
partial	-5911
zed	-5912
▁cop	-5913
▁Long	-5914
▁infection	-5915
▁Mad	-5916
host	-5917
▁neur	-5918
▁feedback	-5919
▁comprehens	-5920
▁behavi	-5921
▁teachers	-5922
prop	-5923
▁Light	-5924
▁reliable	-5925
isher	-5926
otal	-5927
pace	-5928
▁Security	-5929
▁accounts	-5930
▁networks	-5931
esh	-5932
ystem	-5933
▁senior	-5934
▁League	-5935
▁returns	-5936
▁distinct	-5937
▁illustr	-5938
och	-5939
▁killed	-5940
▁administr	-5941
▁Code	-5942
▁efficiency	-5943
/0	-5944
▁exposure	-5945
▁nearest	-5946
****************	-5947
▁///	-5948
AY	-5949
▁judge	-5950
▁assessment	-5951
▁none	-5952
▁charges	-5953
▁phil	-5954
ulture	-5955
oration	-5956
what	-5957
▁drugs	-5958
▁String	-5959
▁!=	-5960
▁Kore	-5961
▁diam	-5962
▁license	-5963
while	-5964
essage	-5965
▁fruit	-5966
▁authority	-5967
▁excess	-5968
▁characteristics	-5969
▁oblig	-5970
ario	-5971
izer	-5972
▁End	-5973
▁pure	-5974
ingu	-5975
▁sugar	-5976
▁Wall	-5977
▁restrict	-5978
▁structures	-5979
how	-5980
▁Rock	-5981
▁Pay	-5982
function	-5983
▁theme	-5984
▁religious	-5985
ilde	-5986
▁Ref	-5987
▁cabin	-5988
▁discovered	-5989
▁effectively	-5990
inte	-5991
iner	-5992
For	-5993
aid	-5994
▁column	-5995
94	-5996
yles	-5997
▁beauty	-5998
▁colour	-5999
10.	-6000
▁Such	-6001
▁lawy	-6002
ums	-6003
▁affordable	-6004
▁Pri	-6005
▁univers	-6006
▁faster	-6007
Ed	-6008
▁agents	-6009
▁route	-6010
▁Society	-6011
itutional	-6012
▁ourselves	-6013
▁emphas	-6014
▁cultural	-6015
inating	-6016
▁picked	-6017
▁sides	-6018
▁insert	-6019
▁mur	-6020
▁Ext	-6021
▁enjoyed	-6022
▁Microsoft	-6023
▁intellig	-6024
▁Instead	-6025
▁ju	-6026
▁Moreover	-6027
ady	-6028
▁iron	-6029
▁weap	-6030
oom	-6031
▁\<	-6032
▁Charl	-6033
▁exciting	-6034
▁delivered	-6035
▁/>	-6036
▁ment	-6037
▁Twitter	-6038
▁dump	-6039
▁border	-6040
8)	-6041
IA	-6042
water	-6043
▁charged	-6044
▁register	-6045
▁attorney	-6046
UM	-6047
▁lunch	-6048
TC	-6049
▁Lu	-6050
alled	-6051
▁define	-6052
▁concentration	-6053
resents	-6054
ola	-6055
▁Through	-6056
▁vehicles	-6057
.0	-6058
▁provider	-6059
▁View	-6060
▁chosen	-6061
▁forest	-6062
By	-6063
ifier	-6064
▁thread	-6065
▁Pass	-6066
▁AR	-6067
▁Step	-6068
▁sport	-6069
▁settings	-6070
▁instructions	-6071
oken	-6072
elines	-6073
▁inject	-6074
ca	-6075
▁pun	-6076
▁ven	-6077
▁Grand	-6078
azine	-6079
▁Rad	-6080
▁lux	-6081
▁Furthermore	-6082
▁Real	-6083
▁fantastic	-6084
▁signs	-6085
▁HD	-6086
stra	-6087
uting	-6088
▁tail	-6089
▁Chicago	-6090
▁Den	-6091
▁enable	-6092
▁seeking	-6093
2){	-6094
▁choices	-6095
ansion	-6096
▁SP	-6097
▁symbol	-6098
▁procedures	-6099
On	-6100
▁2009	-6101
▁Scott	-6102
▁considering	-6103
▁technologies	-6104
▁investigation	-6105
agon	-6106
ribe	-6107
▁compens	-6108
▁highlight	-6109
._	-6110
lets	-6111
▁beat	-6112
▁module	-6113
▁plays	-6114
▁emergency	-6115
▁lived	-6116
▁letters	-6117
87	-6118
▁prove	-6119
▁MS	-6120
▁reject	-6121
▁technique	-6122
▁rain	-6123
section	-6124
▁Food	-6125
▁confirmed	-6126
▁Bas	-6127
▁remote	-6128
▁artist	-6129
▁battery	-6130
mes	-6131
▁-4	-6132
alian	-6133
▁depth	-6134
▁stars	-6135
▁greatest	-6136
().	-6137
▁Party	-6138
aska	-6139
▁ran	-6140
▁Carol	-6141
▁categ	-6142
ocolate	-6143
▁depart	-6144
En	-6145
▁comparison	-6146
/3	-6147
FS	-6148
▁Land	-6149
dered	-6150
▁accurate	-6151
▁consumer	-6152
cean	-6153
arn	-6154
comm	-6155
▁Invest	-6156
▁decades	-6157
▁windows	-6158
▁surrounding	-6159
▁positions	-6160
▁desire	-6161
van	-6162
▁AL	-6163
▁Da	-6164
▁Fil	-6165
▁prepare	-6166
▁Start	-6167
▁Robert	-6168
▁reduction	-6169
▁Earth	-6170
▁awesome	-6171
▁anywhere	-6172
($	-6173
tau	-6174
-201	-6175
▁winning	-6176
▁officer	-6177
ading	-6178
arp	-6179
map	-6180
▁Nor	-6181
▁Wil	-6182
▁teach	-6183
▁serving	-6184
▁films	-6185
▁shares	-6186
▁supporting	-6187
▁familiar	-6188
▁Sand	-6189
▁NY	-6190
ensed	-6191
sim	-6192
▁fif	-6193
▁negot	-6194
▁extent	-6195
▁climate	-6196
▁explained	-6197
▁Tim	-6198
▁ring	-6199
▁bacter	-6200
▁Tor	-6201
▁busy	-6202
▁Cy	-6203
▁Mont	-6204
ventional	-6205
▁ingredients	-6206
▁Gal	-6207
▁reaction	-6208
style	-6209
▁sole	-6210
▁Offic	-6211
FA	-6212
▁entered	-6213
ormal	-6214
▁stret	-6215
▁extended	-6216
▁typical	-6217
▁messages	-6218
▁Blue	-6219
▁salt	-6220
^\	-6221
▁acknow	-6222
▁worksh	-6223
▁neck	-6224
▁degrees	-6225
▁generate	-6226
▁WH	-6227
▁tea	-6228
000000	-6229
▁fourth	-6230
▁represents	-6231
▁academic	-6232
EV	-6233
▁Bud	-6234
▁shap	-6235
▁massive	-6236
▁assets	-6237
▁favour	-6238
ATION	-6239
▁wave	-6240
iverse	-6241
istan	-6242
▁executive	-6243
▁implementation	-6244
ker	-6245
▁casino	-6246
▁Journal	-6247
cho	-6248
▁pul	-6249
▁circuit	-6250
▁male	-6251
▁institutions	-6252
rastructure	-6253
[0	-6254
▁tub	-6255
▁candidate	-6256
▁trig	-6257
▁essay	-6258
▁educational	-6259
}}\	-6260
▁twice	-6261
▁Team	-6262
▁Master	-6263
define	-6264
▁cloud	-6265
obe	-6266
▁holds	-6267
▁Medical	-6268
▁describe	-6269
▁scientific	-6270
anges	-6271
▁Amazon	-6272
▁Section	-6273
▁concentr	-6274
▁recon	-6275
▁ox	-6276
▁mel	-6277
▁lovely	-6278
▁spin	-6279
▁speech	-6280
TA	-6281
▁youth	-6282
▁swim	-6283
rition	-6284
▁grade	-6285
▁extensive	-6286
));	-6287
▁improvement	-6288
▁supports	-6289
Be	-6290
long	-6291
anish	-6292
▁prime	-6293
``	-6294
ua	-6295
▁Pan	-6296
▁spons	-6297
▁Calculate	-6298
source	-6299
▁providers	-6300
▁Sup	-6301
▁nurs	-6302
ults	-6303
▁infl	-6304
MC	-6305
level	-6306
▁Dou	-6307
▁About	-6308
~2	-6309
▁ON	-6310
▁thr	-6311
Map	-6312
▁->	-6313
▁Maybe	-6314
▁totally	-6315
HT	-6316
Man	-6317
▁experiment	-6318
rain	-6319
lication	-6320
▁employment	-6321
ometimes	-6322
▁dining	-6323
▁nine	-6324
▁equival	-6325
odel	-6326
faces	-6327
▁matrix	-6328
▁websites	-6329
road	-6330
inations	-6331
▁protocol	-6332
▁testim	-6333
▁referred	-6334
62	-6335
▁milk	-6336
▁alleged	-6337
▁subjects	-6338
atal	-6339
▁concern	-6340
]^	-6341
▁goods	-6342
▁appearance	-6343
300	-6344
▁orders	-6345
▁Android	-6346
itis	-6347
mosp	-6348
▁Community	-6349
▁successfully	-6350
▁Thomas	-6351
agers	-6352
▁suggests	-6353
'.	-6354
AV	-6355
"><	-6356
▁flight	-6357
▁sitting	-6358
aked	-6359
etry	-6360
▁bon	-6361
▁Russia	-6362
▁African	-6363
▁Enter	-6364
▁True	-6365
▁neighborhood	-6366
▁[*	-6367
encing	-6368
orough	-6369
▁outdoor	-6370
▁38	-6371
▁Prov	-6372
▁Organ	-6373
▁Equ	-6374
▁Beach	-6375
▁Valley	-6376
▁artists	-6377
▁virtual	-6378
(),	-6379
car	-6380
▁creation	-6381
▁competitive	-6382
\])	-6383
▁Soft	-6384
▁boost	-6385
ATE	-6386
▁aid	-6387
▁Product	-6388
▁perspective	-6389
from	-6390
▁pump	-6391
▁chart	-6392
▁criminal	-6393
▁valuable	-6394
▁expertise	-6395
▁responses	-6396
ideo	-6397
▁cooper	-6398
▁paying	-6399
▁buildings	-6400
fol	-6401
▁mac	-6402
▁mere	-6403
rame	-6404
▁Peter	-6405
▁estimated	-6406
stract	-6407
ossible	-6408
▁violence	-6409
▁amb	-6410
▁lib	-6411
▁manufacturing	-6412
▁CON	-6413
friend	-6414
▁Johns	-6415
▁mine	-6416
▁hundreds	-6417
▁Tre	-6418
position	-6419
▁realize	-6420
▁jury	-6421
▁zone	-6422
▁shift	-6423
▁bigger	-6424
▁coach	-6425
▁officers	-6426
▁ath	-6427
▁broken	-6428
▁Americans	-6429
51	-6430
▁ast	-6431
prise	-6432
▁experiments	-6433
▁Mel	-6434
▁Show	-6435
▁controls	-6436
▁Mult	-6437
▁divided	-6438
▁Card	-6439
▁tight	-6440
▁emp	-6441
▁crime	-6442
link	-6443
▁jur	-6444
▁frequently	-6445
ethyl	-6446
........	-6447
onent	-6448
▁Dani	-6449
▁guarantee	-6450
js	-6451
▁kinds	-6452
▁nest	-6453
▁standing	-6454
▁distributed	-6455
▁SD	-6456
▁Keep	-6457
▁married	-6458
▁shipping	-6459
▁Iran	-6460
▁remind	-6461
▁template	-6462
▁controlled	-6463
▁\\	-6464
west	-6465
▁zero	-6466
▁concerned	-6467
inst	-6468
▁Ca	-6469
▁stre	-6470
▁mixed	-6471
▁perman	-6472
▁possibility	-6473
▁CA	-6474
▁outcome	-6475
▁occurred	-6476
adian	-6477
▁($	-6478
item	-6479
▁tasks	-6480
Se	-6481
pass	-6482
aine	-6483
▁ped	-6484
ushed	-6485
arsh	-6486
▁Circ	-6487
^[@	-6488
72	-6489
▁grown	-6490
▁freedom	-6491
▁formation	-6492
▁supposed	-6493
=0	-6494
Ind	-6495
ura	-6496
74	-6497
▁binding	-6498
▁interior	-6499
▁occasion	-6500
.3	-6501
▁consumers	-6502
▁sizes	-6503
▁breast	-6504
Sc	-6505
▁brown	-6506
▁matters	-6507
▁achieved	-6508
lib	-6509
noon	-6510
▁Asia	-6511
mary	-6512
▁Technology	-6513
▁integrated	-6514
▁uns	-6515
option	-6516
orders	-6517
release	-6518
)}	-6519
ESS	-6520
▁$1	-6521
▁Spring	-6522
ji	-6523
▁draft	-6524
▁chapter	-6525
▁-5	-6526
ANT	-6527
▁Person	-6528
bot	-6529
▁Ap	-6530
▁empt	-6531
▁parking	-6532
mic	-6533
node	-6534
▁nuclear	-6535
▁outcomes	-6536
▁comprehensive	-6537
▁Cas	-6538
▁conversation	-6539
▁Administ	-6540
▁variable	-6541
$-	-6542
Sec	-6543
ograp	-6544
▁Town	-6545
▁native	-6546
▁FOR	-6547
ala	-6548
New	-6549
▁relief	-6550
▁(3	-6551
▁Atl	-6552
▁deals	-6553
▁Indust	-6554
De	-6555
RC	-6556
▁subs	-6557
▁feels	-6558
Set	-6559
non	-6560
▁gather	-6561
~2~	-6562
▁ends	-6563
▁mechanism	-6564
erry	-6565
▁Sign	-6566
▁Old	-6567
▁trading	-6568
oe	-6569
.100	-6570
\'	-6571
▁33	-6572
▁cos	-6573
olars	-6574
▁quiet	-6575
▁lights	-6576
iform	-6577
▁restaurants	-6578
▁Ver	-6579
idents	-6580
rich	-6581
▁11.	-6582
king	-6583
▁scr	-6584
▁Cam	-6585
▁banks	-6586
▁atmosp	-6587
63	-6588
▁Family	-6589
▁accomp	-6590
▁alcohol	-6591
FC	-6592
struct	-6593
▁forced	-6594
▁definition	-6595
BI	-6596
draw	-6597
▁vert	-6598
▁purchased	-6599
▁recognized	-6600
▁participate	-6601
ester	-6602
ployment	-6603
▁capable	-6604
EST	-6605
▁precise	-6606
="0	-6607
▁enforce	-6608
▁announce	-6609
▁sac	-6610
▁mouth	-6611
▁sheet	-6612
▁facilit	-6613
elf	-6614
▁Nov	-6615
▁depends	-6616
92	-6617
..."	-6618
▁sup	-6619
▁Four	-6620
▁renew	-6621
ih	-6622
index	-6623
▁battle	-6624
organ	-6625
▁unlike	-6626
▁(2)	-6627
▁Dig	-6628
▁});	-6629
usher	-6630
▁worse	-6631
▁Human	-6632
▁candidates	-6633
84	-6634
oral	-6635
▁errors	-6636
Qu	-6637
abs	-6638
Key	-6639
got	-6640
▁exists	-6641
▁pursu	-6642
▁Despite	-6643
▁san	-6644
▁Download	-6645
▁percentage	-6646
osoph	-6647
▁kick	-6648
▁rough	-6649
▁Three	-6650
▁therm	-6651
▁studied	-6652
82	-6653
FF	-6654
ears	-6655
▁noise	-6656
anda	-6657
▁solar	-6658
▁muscle	-6659
▁reform	-6660
Time	-6661
reens	-6662
▁statist	-6663
▁Ide	-6664
▁Academ	-6665
93	-6666
Int	-6667
▁Trust	-6668
▁revenue	-6669
\*	-6670
pre	-6671
▁Prot	-6672
▁NE	-6673
▁phosph	-6674
▁YOU	-6675
▁intent	-6676
▁cutting	-6677
▁Louis	-6678
▁pharm	-6679
▁attached	-6680
▁doors	-6681
▁authent	-6682
db	-6683
▁memb	-6684
▁accord	-6685
oker	-6686
▁fly	-6687
▁mainly	-6688
▁scheme	-6689
oking	-6690
▁owned	-6691
real	-6692
▁Fund	-6693
▁inspired	-6694
gent	-6695
▁mit	-6696
color	-6697
▁bringing	-6698
%,	-6699
All	-6700
iest	-6701
weet	-6702
nergy	-6703
uality	-6704
▁agencies	-6705
▁Isl	-6706
▁delicious	-6707
okes	-6708
▁Vict	-6709
▁foods	-6710
▁commission	-6711
▁Hi	-6712
IB	-6713
▁Log	-6714
▁indeed	-6715
PP	-6716
ints	-6717
▁unable	-6718
onic	-6719
%.	-6720
▁gro	-6721
▁fellow	-6722
▁lip	-6723
▁knowing	-6724
war	-6725
▁exception	-6726
▁innovative	-6727
▁trad	-6728
▁TR	-6729
▁boat	-6730
-20	-6731
▁1:	-6732
▁AT	-6733
▁400	-6734
▁editor	-6735
▁presentation	-6736
▁entirely	-6737
llo	-6738
▁NS	-6739
▁launched	-6740
tion	-6741
▁updates	-6742
▁cm	-6743
wing	-6744
irty	-6745
▁advis	-6746
▁prompt	-6747
▁6,	-6748
▁mand	-6749
▁monthly	-6750
dim	-6751
▁joy	-6752
yan	-6753
▁Jose	-6754
▁bike	-6755
73	-6756
▁Centre	-6757
▁analys	-6758
▁Solve	-6759
▁Did	-6760
▁sau	-6761
▁Copy	-6762
▁adop	-6763
▁linear	-6764
▁Museum	-6765
▁);	-6766
eper	-6767
▁association	-6768
oter	-6769
▁Head	-6770
she	-6771
url	-6772
epsilon	-6773
▁carbon	-6774
▁Lim	-6775
▁marriage	-6776
ride	-6777
▁Pac	-6778
▁formal	-6779
▁AS	-6780
ibilities	-6781
▁Virgin	-6782
ellant	-6783
▁stable	-6784
▁historical	-6785
':	-6786
▁Put	-6787
▁audio	-6788
▁forth	-6789
pling	-6790
▁closely	-6791
▁Mic	-6792
etime	-6793
▁fle	-6794
▁shock	-6795
▁Secret	-6796
▁thin	-6797
▁]	-6798
awa	-6799
edia	-6800
▁packages	-6801
weight	-6802
▁advertising	-6803
▁detection	-6804
▁applicable	-6805
ogue	-6806
▁pil	-6807
▁chief	-6808
▁Supreme	-6809
▁dollars	-6810
ipal	-6811
▁assume	-6812
▁researchers	-6813
pan	-6814
▁2000	-6815
▁dogs	-6816
▁Ir	-6817
▁walls	-6818
▁stored	-6819
▁writer	-6820
▁organic	-6821
▁stopped	-6822
▁contained	-6823
queue	-6824
▁situations	-6825
was	-6826
ownt	-6827
▁convenient	-6828
ML	-6829
400	-6830
▁42	-6831
▁arrived	-6832
input	-6833
▁Oper	-6834
sen	-6835
▁Frank	-6836
ERS	-6837
igan	-6838
▁upload	-6839
▁afternoon	-6840
▁=========	-6841
▁appreciate	-6842
away	-6843
▁demonstrated	-6844
irms	-6845
▁Leg	-6846
▁anx	-6847
aa	-6848
▁elev	-6849
▁perm	-6850
▁perfectly	-6851
^*	-6852
bed	-6853
terday	-6854
▁destroy	-6855
Ad	-6856
ords	-6857
▁Music	-6858
max	-6859
image	-6860
▁county	-6861
▁exceed	-6862
▁Control	-6863
▁trained	-6864
▁breakfast	-6865
▁tom	-6866
▁covers	-6867
▁begins	-6868
▁extension	-6869
ECT	-6870
pes	-6871
▁houses	-6872
▁dynamic	-6873
ulous	-6874
▁operator	-6875
▁af	-6876
▁Network	-6877
▁conflict	-6878
▁Opt	-6879
▁dish	-6880
▁dangerous	-6881
ba	-6882
▁rail	-6883
orial	-6884
ener	-6885
▁Unf	-6886
celer	-6887
annels	-6888
▁desired	-6889
▁premium	-6890
▁SC	-6891
orph	-6892
amics	-6893
gage	-6894
▁inn	-6895
▁75	-6896
▁Women	-6897
▁Sometimes	-6898
▁informed	-6899
▁album	-6900
▁Contact	-6901
▁tickets	-6902
case	-6903
\_	-6904
▁commitment	-6905
▁drivers	-6906
▁readers	-6907
▁Key	-6908
ifies	-6909
just	-6910
ample	-6911
▁Adv	-6912
▁meal	-6913
▁investors	-6914
uing	-6915
▁CL	-6916
▁EU	-6917
last	-6918
▁fell	-6919
▁crisis	-6920
QL	-6921
▁tough	-6922
▁village	-6923
▁trouble	-6924
bal	-6925
rency	-6926
▁−	-6927
▁Mot	-6928
▁fulf	-6929
▁habit	-6930
▁Author	-6931
page	-6932
▁wal	-6933
estyle	-6934
xi	-6935
▁wealth	-6936
▁metab	-6937
▁statements	-6938
▁visiting	-6939
ora	-6940
▁Cir	-6941
▁Current	-6942
▁believed	-6943
▁household	-6944
?”	-6945
▁topics	-6946
▁volt	-6947
▁Econom	-6948
▁monitoring	-6949
nce	-6950
▁2018.	-6951
▁Russian	-6952
▁proport	-6953
flow	-6954
▁dance	-6955
▁scan	-6956
▁skill	-6957
▁Australian	-6958
▁electrical	-6959
▁""	-6960
▁Ma	-6961
otype	-6962
▁Corpor	-6963
▁Station	-6964
▁regulations	-6965
▁west	-6966
idem	-6967
▁Plus	-6968
▁Lo	-6969
▁evolution	-6970
With	-6971
▁mixture	-6972
▁songs	-6973
ql	-6974
Info	-6975
rary	-6976
▁river	-6977
▁answers	-6978
▁machines	-6979
burg	-6980
▁rental	-6981
yo	-6982
Test	-6983
PD	-6984
▁CEO	-6985
▁pp	-6986
▁tox	-6987
▁payments	-6988
▁committee	-6989
▁television	-6990
▁fort	-6991
▁Global	-6992
▁planned	-6993
▁sections	-6994
}$,	-6995
▁compare	-6996
▁regularly	-6997
▁substantial	-6998
asp	-6999
^{-1	-7000
▁Dev	-7001
▁alt	-7002
▁0.00	-7003
▁spaces	-7004
▁infrastructure	-7005
▁les	-7006
▁glad	-7007
Exception	-7008
▁medicine	-7009
cop	-7010
▁Sar	-7011
▁solve	-7012
▁speaking	-7013
▁photograph	-7014
▁Men	-7015
igr	-7016
dden	-7017
▁turns	-7018
▁regional	-7019
▁authorities	-7020
▁34	-7021
plete	-7022
▁Times	-7023
▁variables	-7024
oes	-7025
▁wheel	-7026
ye	-7027
▁meat	-7028
▁university	-7029
83	-7030
uset	-7031
▁brands	-7032
▁Los	-7033
▁William	-7034
▁DC	-7035
▁hardware	-7036
coin	-7037
▁sentence	-7038
▁~	-7039
▁Cath	-7040
▁calculated	-7041
icing	-7042
ulating	-7043
|\	-7044
▁FR	-7045
▁SH	-7046
group	-7047
▁Full	-7048
▁Federal	-7049
▁diseases	-7050
▁electron	-7051
▁Additionally	-7052
▁Ltd	-7053
ospit	-7054
▁configuration	-7055
ULL	-7056
alysis	-7057
^{(	-7058
▁usual	-7059
▁butter	-7060
▁duty	-7061
oga	-7062
Comp	-7063
▁occurs	-7064
▁registration	-7065
▁};	-7066
olar	-7067
▁Hand	-7068
abetes	-7069
aka	-7070
▁Connect	-7071
▁truck	-7072
▁serves	-7073
▁password	-7074
▁meals	-7075
▁Jul	-7076
▁summary	-7077
▁instrument	-7078
RL	-7079
▁widely	-7080
▁crew	-7081
ificate	-7082
▁challenging	-7083
▁guest	-7084
▁marked	-7085
▁operate	-7086
▁calc	-7087
▁framework	-7088
PM	-7089
race	-7090
star	-7091
▁linked	-7092
▁engineering	-7093
▁((	-7094
▁contribute	-7095
EG	-7096
oters	-7097
▁approaches	-7098
{1}{	-7099
▁cro	-7100
▁secondary	-7101
isd	-7102
reprene	-7103
▁Having	-7104
▁injuries	-7105
▁Lar	-7106
▁tables	-7107
-01	-7108
▁adequ	-7109
▁Johnson	-7110
▁III	-7111
▁spr	-7112
Delta	-7113
array	-7114
oster	-7115
▁closer	-7116
▁conventional	-7117
rangle	-7118
▁sudden	-7119
▁telling	-7120
▁Aud	-7121
atively	-7122
aturing	-7123
▁Middle	-7124
target	-7125
▁terror	-7126
▁carefully	-7127
}$.	-7128
▁Cup	-7129
▁fro	-7130
▁Wild	-7131
▁risks	-7132
ket	-7133
▁relation	-7134
kes	-7135
▁inner	-7136
▁reput	-7137
.'	-7138
.01	-7139
▁acts	-7140
▁ampl	-7141
/4	-7142
uling	-7143
▁Hotel	-7144
▁reporting	-7145
AND	-7146
▁dating	-7147
▁emotional	-7148
▁Arab	-7149
▁Rest	-7150
▁petition	-7151
▁admission	-7152
▁literature	-7153
Phone	-7154
▁vast	-7155
ocated	-7156
▁attacks	-7157
amental	-7158
▁Phot	-7159
▁happening	-7160
dr	-7161
indu	-7162
child	-7163
osa	-7164
▁nearby	-7165
**4	-7166
▁pipe	-7167
▁rear	-7168
auc	-7169
▁(1)	-7170
▁empty	-7171
▁diverse	-7172
▁entit	-7173
▁survival	-7174
hire	-7175
Class	-7176
▁domestic	-7177
▁(5	-7178
▁Max	-7179
▁critic	-7180
▁constit	-7181
fa	-7182
▁Mean	-7183
▁taxes	-7184
ascular	-7185
▁Mexico	-7186
▁routine	-7187
ools	-7188
▁Media	-7189
▁Italian	-7190
▁10,	-7191
▁icon	-7192
▁caught	-7193
▁whereas	-7194
cons	-7195
▁interact	-7196
raction	-7197
▁Police	-7198
▁MA	-7199
▁Give	-7200
▁Award	-7201
▁figures	-7202
▁privacy	-7203
▁appointment	-7204
quad	-7205
▁king	-7206
▁manual	-7207
▁crucial	-7208
▁reducing	-7209
▁bread	-7210
fil	-7211
▁repeated	-7212
ials	-7213
▁potentially	-7214
ui	-7215
Add	-7216
cules	-7217
▁chronic	-7218
▁cooking	-7219
▁passing	-7220
nab	-7221
ondition	-7222
▁worldwide	-7223
′′	-7224
mega	-7225
▁Unfortunately	-7226
▁#:	-7227
▁Cho	-7228
▁Nav	-7229
▁invent	-7230
▁margin	-7231
▁detected	-7232
▁consideration	-7233
tic	-7234
zer	-7235
▁esc	-7236
▁Buy	-7237
isters	-7238
▁movies	-7239
▁retire	-7240
▁incident	-7241
▁shel	-7242
script	-7243
▁approval	-7244
▁fluid	-7245
▁commonly	-7246
▁apps	-7247
▁sessions	-7248
1;	-7249
▁east	-7250
▁Haw	-7251
▁absence	-7252
▁evaluation	-7253
▁imagine	-7254
▁principles	-7255
ferent	-7256
▁Paris	-7257
▁removal	-7258
▁signals	-7259
▁normally	-7260
▁supplies	-7261
▁primarily	-7262
BL	-7263
\\	-7264
▁Du	-7265
▁criteria	-7266
▁opposite	-7267
brid	-7268
▁hole	-7269
▁persons	-7270
kins	-7271
itivity	-7272
▁Report	-7273
▁capture	-7274
▁Pub	-7275
ulty	-7276
▁flowers	-7277
▁testimony	-7278
ena	-7279
▁2007	-7280
Path	-7281
▁chicken	-7282
▁magnetic	-7283
▁contemporary	-7284
▁Yet	-7285
▁browser	-7286
▁evol	-7287
▁react	-7288
▁reward	-7289
▁saving	-7290
▁instruct	-7291
▁consumption	-7292
9)	-7293
VD	-7294
▁awareness	-7295
law	-7296
▁fairly	-7297
▁residential	-7298
umes	-7299
▁Plaintiff	-7300
▁represented	-7301
▁Bald	-7302
▁dur	-7303
▁clar	-7304
ultural	-7305
▁debate	-7306
▁nom	-7307
ruption	-7308
▁missed	-7309
▁independ	-7310
▁remained	-7311
▁specified	-7312
▁export	-7313
▁dismiss	-7314
▁Cost	-7315
▁fitness	-7316
▁birthday	-7317
MP	-7318
▁Wal	-7319
▁cryst	-7320
▁treatments	-7321
▁Though	-7322
:#	-7323
▁EX	-7324
aren	-7325
▁Italy	-7326
▁cable	-7327
olly	-7328
▁blocks	-7329
▁mir	-7330
▁prison	-7331
▁elig	-7332
▁hero	-7333
▁ille	-7334
ighter	-7335
▁impressive	-7336
▁Ira	-7337
▁narrow	-7338
▁continuous	-7339
rics	-7340
zing	-7341
acks	-7342
▁Right	-7343
missions	-7344
▁equivalent	-7345
▁expectations	-7346
▁Mach	-7347
▁replaced	-7348
▁scope	-7349
▁impossible	-7350
3){	-7351
▁sister	-7352
▁History	-7353
▁chocolate	-7354
▁immediate	-7355
infty	-7356
▁hall	-7357
holders	-7358
▁exposed	-7359
▁publish	-7360
There	-7361
['	-7362
▁urban	-7363
▁requirement	-7364
▁soil	-7365
▁prosec	-7366
▁involving	-7367
▁accessible	-7368
▁sou	-7369
GB	-7370
elle	-7371
▁Kh	-7372
▁suc	-7373
version	-7374
▁creates	-7375
EP	-7376
▁preparation	-7377
▁healthcare	-7378
iki	-7379
eries	-7380
▁bridge	-7381
▁exclusive	-7382
▁39	-7383
▁Aff	-7384
stood	-7385
spe	-7386
connect	-7387
erved	-7388
▁CR	-7389
▁transmission	-7390
vas	-7391
▁ease	-7392
▁stands	-7393
fn	-7394
▁ordered	-7395
▁involves	-7396
▁PA	-7397
athe	-7398
ALL	-7399
▁2)	-7400
▁IL	-7401
appy	-7402
▁tells	-7403
▁layers	-7404
*~	-7405
Fl	-7406
▁Mike	-7407
gments	-7408
▁latter	-7409
▁granted	-7410
▁Never	-7411
▁Canadian	-7412
▁diagnosis	-7413
▁Chris	-7414
uts	-7415
cers	-7416
▁decrease	-7417
ether	-7418
▁activation	-7419
▁Try	-7420
build	-7421
▁False	-7422
HS	-7423
▁01	-7424
font	-7425
▁indicates	-7426
▁Stat	-7427
▁Energy	-7428
▁employed	-7429
umer	-7430
▁ultimately	-7431
▁peak	-7432
▁moments	-7433
▁7,	-7434
sole	-7435
▁alter	-7436
▁keeps	-7437
▁Ok	-7438
▁Way	-7439
▁submit	-7440
gamma	-7441
▁channels	-7442
▁consists	-7443
▁directed	-7444
usal	-7445
▁Conference	-7446
▁au	-7447
▁12.	-7448
▁sick	-7449
▁noticed	-7450
▁expenses	-7451
orable	-7452
▁ongoing	-7453
▁sensitive	-7454
My	-7455
run	-7456
That	-7457
adow	-7458
▁Inf	-7459
estion	-7460
▁territ	-7461
▁objective	-7462
pled	-7463
▁binary	-7464
▁cheese	-7465
obby	-7466
▁necessarily	-7467
▁Lin	-7468
▁cycl	-7469
▁liability	-7470
ras	-7471
▁kit	-7472
▁bless	-7473
▁loans	-7474
▁amounts	-7475
▁expansion	-7476
▁pod	-7477
ocracy	-7478
▁Victor	-7479
▁engage	-7480
▁shower	-7481
▁connections	-7482
▁Van	-7483
▁sad	-7484
▁colon	-7485
▁silver	-7486
Pl	-7487
YS	-7488
crib	-7489
▁gal	-7490
▁Interest	-7491
▁Ep	-7492
’.	-7493
▁55	-7494
');	-7495
▁Martin	-7496
▁Students	-7497
oned	-7498
▁lighting	-7499
▁virus	-7500
▁ves	-7501
▁veter	-7502
▁constra	-7503
▁recognize	-7504
CS	-7505
▁plot	-7506
▁facing	-7507
▁yellow	-7508
▁Hospital	-7509
▁thorough	-7510
PU	-7511
riz	-7512
charge	-7513
▁legisl	-7514
▁superior	-7515
hus	-7516
▁Hen	-7517
_1,	-7518
▁abuse	-7519
▁discipl	-7520
▁Support	-7521
BM	-7522
iot	-7523
umps	-7524
▁Iraq	-7525
▁loop	-7526
▁Young	-7527
.00	-7528
▁Lead	-7529
▁existence	-7530
live	-7531
astern	-7532
▁Creat	-7533
▁Watch	-7534
▁Series	-7535
▁sexual	-7536
▁landscape	-7537
▁supplement	-7538
▁Chief	-7539
▁meetings	-7540
▁minim	-7541
▁Alaska	-7542
▁constantly	-7543
chi	-7544
▁py	-7545
▁organized	-7546
61	-7547
Up	-7548
Def	-7549
azz	-7550
bles	-7551
\].	-7552
▁Bit	-7553
▁Lee	-7554
check	-7555
▁Line	-7556
start	-7557
▁concerning	-7558
▁Bu	-7559
inent	-7560
▁arms	-7561
▁Field	-7562
▁scores	-7563
▁mountain	-7564
▁originally	-7565
pel	-7566
▁Coll	-7567
▁teeth	-7568
▁explan	-7569
▁profit	-7570
▁Jim	-7571
▁vul	-7572
▁scheduled	-7573
▁150	-7574
rance	-7575
▁outstanding	-7576
▁humans	-7577
▁Game	-7578
▁bowl	-7579
▁instruction	-7580
▁taught	-7581
▁personally	-7582
▁Week	-7583
▁Jeff	-7584
▁bone	-7585
▁shoes	-7586
▁minimal	-7587
81	-7588
▁(0.	-7589
▁Point	-7590
▁chrom	-7591
▁subsequent	-7592
▁Ken	-7593
▁tiny	-7594
▁guidance	-7595
roke	-7596
▁surprise	-7597
▁manif	-7598
▁hidden	-7599
▁undert	-7600
▁manufacturer	-7601
)/	-7602
uine	-7603
▁remark	-7604
agues	-7605
▁Resp	-7606
endant	-7607
▁visible	-7608
▁displayed	-7609
▁compliance	-7610
retion	-7611
▁discrim	-7612
enth	-7613
▁garage	-7614
▁leather	-7615
iams	-7616
▁hire	-7617
▁ticket	-7618
▁versus	-7619
▁justice	-7620
▁incredible	-7621
▁increasingly	-7622
aven	-7623
▁rig	-7624
▁msgid	-7625
core	-7626
lymp	-7627
▁limits	-7628
▁msgstr	-7629
▁Tok	-7630
-12	-7631
▁vital	-7632
onal	-7633
▁Agree	-7634
▁Jones	-7635
▁sight	-7636
RI	-7637
abil	-7638
▁Exec	-7639
▁advoc	-7640
▁requests	-7641
illy	-7642
rine	-7643
▁Mid	-7644
▁arr	-7645
▁Return	-7646
▁jurisd	-7647
▁strongly	-7648
thon	-7649
front	-7650
▁exit	-7651
▁Prime	-7652
▁phenomen	-7653
▁accuracy	-7654
▁conclusion	-7655
▁Pack	-7656
▁Access	-7657
▁denied	-7658
Ct	-7659
▁Cert	-7660
ateral	-7661
▁qualified	-7662
▁2017.	-7663
▁bodies	-7664
▁parameter	-7665
allel	-7666
▁strict	-7667
cin	-7668
▁McC	-7669
▁rom	-7670
anger	-7671
▁Spanish	-7672
▁CS	-7673
▁Term	-7674
▁bear	-7675
▁Hope	-7676
▁climb	-7677
jo	-7678
▁roles	-7679
▁Method	-7680
▁wra	-7681
Sp	-7682
aki	-7683
▁FIG	-7684
eding	-7685
esides	-7686
roduction	-7687
▁improving	-7688
stein	-7689
aturally	-7690
▁defect	-7691
▁flexible	-7692
▁composition	-7693
▁Based	-7694
▁destination	-7695
▁bars	-7696
liament	-7697
▁Gar	-7698
▁Royal	-7699
▁tumor	-7700
▁athlet	-7701
▁episode	-7702
▁Software	-7703
lly	-7704
scale	-7705
▁realized	-7706
va	-7707
▁Mur	-7708
▁adm	-7709
▁sky	-7710
orters	-7711
queuebot	-7712
reated	-7713
▁dose	-7714
▁Place	-7715
▁programme	-7716
▁coc	-7717
▁Priv	-7718
copy	-7719
▁atmosphere	-7720
▁architecture	-7721
▁penal	-7722
▁possess	-7723
▁recording	-7724
▁guidelines	-7725
^+	-7726
▁Far	-7727
▁sin	-7728
▁turning	-7729
▁politics	-7730
▁planet	-7731
▁resulted	-7732
Not	-7733
▁styl	-7734
▁polar	-7735
▁diagram	-7736
▁65	-7737
▁sauce	-7738
▁wearing	-7739
▁Children	-7740
▁Arts	-7741
Requ	-7742
amber	-7743
oston	-7744
▁delight	-7745
po	-7746
▁fasc	-7747
▁preferred	-7748
▁submitted	-7749
DS	-7750
▁vector	-7751
71	-7752
Par	-7753
eless	-7754
stone	-7755
▁illness	-7756
▁partnership	-7757
▁transportation	-7758
▁CN	-7759
▁User	-7760
▁subt	-7761
▁causing	-7762
▁Non	-7763
hesis	-7764
main	-7765
▁120	-7766
▁foundation	-7767
▁hur	-7768
▁Search	-7769
▁Angeles	-7770
▁rein	-7771
ounter	-7772
▁airport	-7773
▁orient	-7774
800	-7775
▁3-	-7776
itar	-7777
▁Carolina	-7778
▁displ	-7779
▁plane	-7780
▁query	-7781
▁experimental	-7782
▁RNA	-7783
▁regulation	-7784
tilde	-7785
▁mini	-7786
▁Photo	-7787
▁Ha	-7788
endment	-7789
▁SO	-7790
▁Manager	-7791
▁anticip	-7792
utch	-7793
▁Saf	-7794
▁raw	-7795
Array	-7796
▁overw	-7797
.\	-7798
▁dil	-7799
tical	-7800
ali	-7801
heast	-7802
▁accum	-7803
▁demonstrate	-7804
▁communications	-7805
▁representation	-7806
ko	-7807
iler	-7808
▁angle	-7809
▁Division	-7810
▁Copyright	-7811
▁segment	-7812
▁evaluate	-7813
object	-7814
ja	-7815
aneous	-7816
▁unknown	-7817
Don	-7818
psi	-7819
unc	-7820
ilty	-7821
▁tou	-7822
▁split	-7823
▁transaction	-7824
▁Ell	-7825
▁Georg	-7826
cdot	-7827
▁mob	-7828
icted	-7829
▁affil	-7830
proposed	-7831
uous	-7832
▁2006	-7833
▁Very	-7834
▁estimate	-7835
pc	-7836
vy	-7837
nic	-7838
ycl	-7839
▁papers	-7840
▁shooting	-7841
RS	-7842
▁defe	-7843
▁grew	-7844
bu	-7845
Config	-7846
▁od	-7847
▁newsp	-7848
ailable	-7849
▁courts	-7850
▁enroll	-7851
▁categories	-7852
xx	-7853
-11	-7854
Des	-7855
otyp	-7856
▁cardi	-7857
▁largely	-7858
▁entitled	-7859
▁8,	-7860
dots	-7861
etch	-7862
Error	-7863
▁mouse	-7864
▁accordance	-7865
arks	-7866
▁tur	-7867
▁yesterday	-7868
▁wet	-7869
▁museum	-7870
▁voltage	-7871
▁algorithm	-7872
.[	-7873
Ent	-7874
tem	-7875
▁Should	-7876
▁philosoph	-7877
▁contribution	-7878
';	-7879
apped	-7880
▁iPhone	-7881
▁stability	-7882
▁millions	-7883
ugh	-7884
▁tor	-7885
▁soul	-7886
ceived	-7887
▁Again	-7888
▁equation	-7889
▁disappoint	-7890
}_{\	-7891
▁0.01	-7892
▁Similar	-7893
▁savings	-7894
▁OS	-7895
▁digit	-7896
▁featured	-7897
that	-7898
HA	-7899
▁stretch	-7900
▁Virginia	-7901
▁searching	-7902
block	-7903
▁adds	-7904
jp	-7905
▁eleg	-7906
▁gate	-7907
▁Senate	-7908
)/(	-7909
hemat	-7910
▁MP	-7911
▁ho	-7912
apse	-7913
▁priority	-7914
ested	-7915
▁availability	-7916
▁Ce	-7917
asant	-7918
▁dealing	-7919
.*	-7920
▁acceler	-7921
sts	-7922
▁performing	-7923
▁limitations	-7924
▁DE	-7925
▁bug	-7926
▁succeed	-7927
▁versions	-7928
▁suffering	-7929
CO	-7930
sect	-7931
▁visited	-7932
▁molecular	-7933
rick	-7934
▁---	-7935
▁hel	-7936
▁Gall	-7937
▁cake	-7938
▁alert	-7939
▁crack	-7940
▁Comput	-7941
▁theore	-7942
ati	-7943
lled	-7944
▁calendar	-7945
▁decreased	-7946
▁lifestyle	-7947
Gamma	-7948
een	-7949
onym	-7950
▁gear	-7951
▁Learn	-7952
▁CT	-7953
base	-7954
▁Williams	-7955
So	-7956
▁Po	-7957
inem	-7958
mond	-7959
▁worst	-7960
▁younger	-7961
▁correctly	-7962
▁Muslim	-7963
▁league	-7964
ami	-7965
rog	-7966
you	-7967
▁tip	-7968
▁File	-7969
▁Cur	-7970
enger	-7971
etric	-7972
▁saved	-7973
▁lowest	-7974
▁edition	-7975
cos	-7976
▁vel	-7977
▁Cast	-7978
▁correl	-7979
▁hurt	-7980
ushing	-7981
▁extend	-7982
▁sought	-7983
▁wireless	-7984
='	-7985
▁Wel	-7986
▁styles	-7987
aph	-7988
▁##	-7989
▁----	-7990
▁stages	-7991
roller	-7992
specific	-7993
▁instant	-7994
▁concrete	-7995
elly	-7996
neys	-7997
ircraft	-7998
ieties	-7999
▁Ms	-8000
▁seed	-8001
▁storm	-8002
▁losing	-8003
cope	-8004
▁2016.	-8005
▁Cross	-8006
ensional	-8007
▁neither	-8008
▁analyzed	-8009
▁everyday	-8010
▁(4	-8011
▁downt	-8012
▁Jewish	-8013
▁choosing	-8014
▁membrane	-8015
▁upcoming	-8016
leq	-8017
▁Fed	-8018
content	-8019
itative	-8020
▁somewhat	-8021
rape	-8022
▁formula	-8023
▁interactions	-8024
Supp	-8025
▁tank	-8026
▁seriously	-8027
▁-2*	-8028
const	-8029
▁ages	-8030
▁boys	-8031
▁horse	-8032
▁Northern	-8033
ometry	-8034
▁Olymp	-8035
atre	-8036
▁Walk	-8037
▁horiz	-8038
▁surve	-8039
ME	-8040
▁99	-8041
ican	-8042
iders	-8043
▁maintained	-8044
title	-8045
▁birds	-8046
▁tab	-8047
▁#####	-8048
▁mining	-8049
▁studio	-8050
▁claimed	-8051
▁employer	-8052
▁cyt	-8053
▁offices	-8054
arg	-8055
▁SU	-8056
▁Est	-8057
▁dates	-8058
▁Justice	-8059
ashed	-8060
▁entertainment	-8061
len	-8062
▁whenever	-8063
▁recognition	-8064
▁Cook	-8065
▁Tour	-8066
▁align	-8067
▁Turn	-8068
▁powder	-8069
▁fundamental	-8070
▁programming	-8071
acc	-8072
▁rice	-8073
after	-8074
riers	-8075
▁painting	-8076
▁setup	-8077
▁Orig	-8078
▁understood	-8079
▁44	-8080
lder	-8081
▁newly	-8082
▁derived	-8083
▁Mov	-8084
ribute	-8085
▁permanent	-8086
▁producing	-8087
info	-8088
true	-8089
▁flood	-8090
▁complaint	-8091
pay	-8092
ilst	-8093
quir	-8094
▁keys	-8095
▁plug	-8096
▁Chair	-8097
agen	-8098
▁division	-8099
▁duration	-8100
▁apartment	-8101
▁collaboration	-8102
asters	-8103
600	-8104
obs	-8105
ailed	-8106
TT	-8107
());	-8108
▁beer	-8109
▁guard	-8110
▁assigned	-8111
▁Still	-8112
▁clothes	-8113
▁initially	-8114
gical	-8115
▁Fact	-8116
▁lies	-8117
ellect	-8118
material	-8119
▁mechanisms	-8120
uma	-8121
▁Image	-8122
▁surprising	-8123
▁Local	-8124
▁hospit	-8125
▁promise	-8126
appro	-8127
▁coup	-8128
▁agric	-8129
▁handling	-8130
▁[**	-8131
▁ble	-8132
▁Cell	-8133
▁gap	-8134
istent	-8135
LS	-8136
▁NO	-8137
▁spiritual	-8138
▁Lab	-8139
gress	-8140
▁pert	-8141
▁printed	-8142
▁inspiration	-8143
▁enem	-8144
▁earned	-8145
▁regardless	-8146
▁introduction	-8147
Inst	-8148
▁Lib	-8149
▁branch	-8150
▁ancient	-8151
▁distingu	-8152
▁representative	-8153
▁Ohio	-8154
########	-8155
expected	-8156
uls	-8157
▁tack	-8158
▁Boston	-8159
-19	-8160
▁deck	-8161
terior	-8162
▁targets	-8163
▁uniform	-8164
▁golf	-8165
▁neighb	-8166
▁adventure	-8167
▁Scot	-8168
▁basically	-8169
then	-8170
▁moves	-8171
▁trave	-8172
▁requested	-8173
ymph	-8174
▁acquis	-8175
Com	-8176
post	-8177
▁####	-8178
▁decade	-8179
▁Looking	-8180
▁Champions	-8181
sk	-8182
▁victory	-8183
▁implemented	-8184
▁(\	-8185
▁EV	-8186
▁Expl	-8187
▁Hon	-8188
inton	-8189
▁plas	-8190
lights	-8191
▁entreprene	-8192
▁stunning	-8193
iana	-8194
▁Low	-8195
▁Ent	-8196
reshold	-8197
▁drawing	-8198
▁managing	-8199
▁modified	-8200
▁Na	-8201
▁hunt	-8202
▁AC	-8203
▁arbit	-8204
▁campus	-8205
▁Account	-8206
▁sending	-8207
▁correlation	-8208
UD	-8209
▁proven	-8210
▁innovation	-8211
onna	-8212
▁Bow	-8213
aints	-8214
▁Zeal	-8215
▁Coast	-8216
▁genuine	-8217
▁recover	-8218
▁2:	-8219
▁Fair	-8220
▁chose	-8221
▁Agreement	-8222
▁vacc	-8223
▁stead	-8224
▁NC	-8225
▁OK	-8226
▁engaged	-8227
▁telephone	-8228
▁intervention	-8229
esis	-8230
▁prospect	-8231
▁conversion	-8232
itud	-8233
haust	-8234
▁teen	-8235
▁43	-8236
init	-8237
utter	-8238
▁chat	-8239
▁sensor	-8240
Of	-8241
▁abund	-8242
▁diabetes	-8243
▁ultimate	-8244
HP	-8245
iy	-8246
▁Er	-8247
▁Small	-8248
▁flash	-8249
91	-8250
▁vend	-8251
▁Space	-8252
▁centers	-8253
▁scholars	-8254
reland	-8255
▁Festival	-8256
effect	-8257
▁inflamm	-8258
▁measurements	-8259
GE	-8260
mo	-8261
▁luxury	-8262
▁Following	-8263
▁Ly	-8264
asts	-8265
vity	-8266
▁Brand	-8267
▁Order	-8268
▁Perhaps	-8269
▁Li	-8270
▁aside	-8271
Hand	-8272
▁dropped	-8273
merce	-8274
▁rapidly	-8275
(1	-8276
atell	-8277
▁quote	-8278
▁attach	-8279
Oh	-8280
born	-8281
▁2005	-8282
▁underlying	-8283
kg	-8284
client	-8285
▁SS	-8286
▁(10	-8287
▁Win	-8288
▁usage	-8289
▁winner	-8290
▁engagement	-8291
▁viewed	-8292
▁celebrate	-8293
▁hook	-8294
▁substr	-8295
▁confident	-8296
▁participation	-8297
ART	-8298
▁applying	-8299
▁consequences	-8300
OG	-8301
Equ	-8302
Net	-8303
open	-8304
▁acting	-8305
▁ren	-8306
▁enthus	-8307
▁je	-8308
▁||	-8309
▁tap	-8310
▁slowly	-8311
lected	-8312
▁founded	-8313
Context	-8314
▁Academy	-8315
▁provision	-8316
▁curve	-8317
▁shops	-8318
▁maintaining	-8319
▁$3	-8320
▁moist	-8321
▁arrive	-8322
▁scored	-8323
▁trends	-8324
▁neurons	-8325
opl	-8326
zil	-8327
▁pm	-8328
▁Mobile	-8329
LD	-8330
Item	-8331
▁resc	-8332
▁twenty	-8333
▁vulner	-8334
▁Britain	-8335
▁assembly	-8336
▁covering	-8337
▁presents	-8338
Comm	-8339
itage	-8340
▁Among	-8341
▁folks	-8342
▁platforms	-8343
▁PS	-8344
▁hate	-8345
▁streets	-8346
config	-8347
intage	-8348
▁crazy	-8349
▁lists	-8350
▁driven	-8351
▁"[	-8352
▁Ut	-8353
▁__	-8354
otted	-8355
▁Name	-8356
▁certified	-8357
OK	-8358
ipt	-8359
▁hat	-8360
oured	-8361
▁gent	-8362
▁shouldn	-8363
▁Republican	-8364
ND	-8365
▁Know	-8366
▁stain	-8367
▁Common	-8368
▁Zealand	-8369
▁examination	-8370
UE	-8371
java	-8372
writ	-8373
ensus	-8374
cor	-8375
▁Sever	-8376
▁inches	-8377
apos	-8378
gas	-8379
State	-8380
profit	-8381
▁Clean	-8382
▁talent	-8383
▁CB	-8384
quare	-8385
▁principal	-8386
▁Democratic	-8387
▁dust	-8388
istant	-8389
▁consent	-8390
▁stronger	-8391
▁tomorrow	-8392
▁featuring	-8393
Bl	-8394
axy	-8395
▁slot	-8396
▁Site	-8397
▁coal	-8398
▁fraud	-8399
▁breath	-8400
▁designer	-8401
▁contributions	-8402
iece	-8403
▁2019.	-8404
operator	-8405
▁nutrition	-8406
▁membership	-8407
foot	-8408
▁oral	-8409
▁intra	-8410
▁lessons	-8411
▁favourite	-8412
▁somewhere	-8413
▁("	-8414
rypt	-8415
▁Type	-8416
▁heads	-8417
▁compat	-8418
▁herself	-8419
▁surprised	-8420
▁intelligence	-8421
▁fighting	-8422
▁finds	-8423
▁nodes	-8424
▁rural	-8425
▁proposal	-8426
^3	-8427
-1,	-8428
▁manufacturers	-8429
/7	-8430
IO	-8431
▁Digital	-8432
▁Richard	-8433
▁rely	-8434
▁MD	-8435
itan	-8436
▁hang	-8437
ITH	-8438
lements	-8439
▁compensation	-8440
ERE	-8441
REE	-8442
▁prev	-8443
uzz	-8444
▁god	-8445
▁basket	-8446
▁HP	-8447
▁Nig	-8448
▁bonus	-8449
▁Andrew	-8450
format	-8451
▁trick	-8452
▁obviously	-8453
Log	-8454
unit	-8455
▁195	-8456
▁Fort	-8457
▁finance	-8458
▁optical	-8459
▁integration	-8460
cp	-8461
nam	-8462
▁Joe	-8463
▁strategic	-8464
FO	-8465
gypt	-8466
home	-8467
inois	-8468
▁Army	-8469
▁Columb	-8470
▁drawn	-8471
ori	-8472
▁Kar	-8473
▁shell	-8474
▁accomplish	-8475
iano	-8476
▁pitch	-8477
10,	-8478
rage	-8479
▁Hol	-8480
▁Southern	-8481
▁struggle	-8482
dev	-8483
▁:=	-8484
worth	-8485
▁Being	-8486
▁firms	-8487
▁Little	-8488
▁continuing	-8489
▁Environment	-8490
▁sustainable	-8491
▁attended	-8492
lif	-8493
▁COM	-8494
▁bare	-8495
▁cogn	-8496
ptions	-8497
▁bench	-8498
▁acquired	-8499
▁graduate	-8500
)).	-8501
▁IM	-8502
amine	-8503
▁Description	-8504
FT	-8505
▁64	-8506
acent	-8507
▁Financial	-8508
▁container	-8509
▁publication	-8510
▁Tri	-8511
▁analyses	-8512
▁carrying	-8513
▁legislation	-8514
iser	-8515
▁Box	-8516
▁guilty	-8517
▁Jackson	-8518
▁adopted	-8519
▁council	-8520
▁developers	-8521
▁strain	-8522
▁Matt	-8523
▁narr	-8524
▁hosting	-8525
▁Price	-8526
▁Library	-8527
redit	-8528
▁Clin	-8529
▁Ireland	-8530
▁Systems	-8531
▁spectrum	-8532
▁reputation	-8533
omega	-8534
▁grid	-8535
▁trials	-8536
▁vessel	-8537
▁measurement	-8538
mers	-8539
▁Sea	-8540
▁lie	-8541
▁Page	-8542
▁genetic	-8543
▁western	-8544
vi	-8545
"},	-8546
She	-8547
▁fishing	-8548
▁enforcement	-8549
▁(**	-8550
langle	-8551
▁anyway	-8552
▁Kn	-8553
▁km	-8554
▁nic	-8555
▁Judge	-8556
▁communicate	-8557
▁sorry	-8558
ogether	-8559
▁Boy	-8560
berry	-8561
▁permission	-8562
▁49	-8563
▁5-	-8564
otton	-8565
▁recommendations	-8566
ITY	-8567
000.	-8568
▁tall	-8569
▁Jersey	-8570
▁API	-8571
person	-8572
▁Would	-8573
▁pleased	-8574
▁principle	-8575
▁complicated	-8576
▁suspect	-8577
▁constructed	-8578
▁investigate	-8579
TML	-8580
▁(3)	-8581
sters	-8582
▁grass	-8583
▁marks	-8584
▁spoke	-8585
▁Contin	-8586
▁weapons	-8587
▁printing	-8588
▁IV	-8589
mble	-8590
▁buffer	-8591
▁populations	-8592
How	-8593
api	-8594
orgeous	-8595
▁reader	-8596
grad	-8597
▁Dan	-8598
▁arts	-8599
including	-8600
▁Hard	-8601
▁Ram	-8602
claim	-8603
▁behalf	-8604
▁gender	-8605
▁equipped	-8606
Or	-8607
▁disk	-8608
▁liked	-8609
▁revers	-8610
▁aircraft	-8611
▁concepts	-8612
tery	-8613
ppers	-8614
▁shoot	-8615
▁stake	-8616
}}$	-8617
▁eggs	-8618
▁Model	-8619
▁contents	-8620
▁overwhel	-8621
▁oxy	-8622
▁eag	-8623
▁blind	-8624
▁admitted	-8625
▁terminal	-8626
▁------------	-8627
▁Dar	-8628
FR	-8629
▁101	-8630
▁gifts	-8631
▁Catholic	-8632
.19	-8633
Form	-8634
▁2015.	-8635
▁feelings	-8636
bsp	-8637
plex	-8638
▁imaging	-8639
▁withdraw	-8640
▁DO	-8641
Event	-8642
▁receptor	-8643
▁vacation	-8644
}(\	-8645
▁Prem	-8646
▁gran	-8647
ixed	-8648
lers	-8649
inant	-8650
inates	-8651
psilon	-8652
▁privile	-8653
▁conscious	-8654
▁46	-8655
teen	-8656
▁mortgage	-8657
▁stations	-8658
▁careful	-8659
▁reverse	-8660
▁Secretary	-8661
bel	-8662
▁Date	-8663
▁Bon	-8664
▁merely	-8665
only	-8666
▁oven	-8667
earing	-8668
▁Enjoy	-8669
▁copyright	-8670
▁Die	-8671
write	-8672
▁Pacific	-8673
▁Studies	-8674
▁identification	-8675
▁Cra	-8676
▁tro	-8677
▁rose	-8678
▁laugh	-8679
▁determination	-8680
▁2-	-8681
▁13.	-8682
▁tradition	-8683
▁scientists	-8684
▁powers	-8685
▁drinking	-8686
▁isolated	-8687
▁essentially	-8688
▁95	-8689
▁PL	-8690
▁12,	-8691
▁sqrt	-8692
▁pulled	-8693
▁utility	-8694
▁temperatures	-8695
▁attractive	-8696
)$.	-8697
▁194	-8698
▁conj	-8699
▁fault	-8700
02	-8701
made	-8702
▁flavor	-8703
▁awarded	-8704
▁musical	-8705
Wh	-8706
lar	-8707
eras	-8708
▁nan	-8709
▁pra	-8710
▁Korea	-8711
▁talks	-8712
▁Indeed	-8713
BB	-8714
bound	-8715
▁1000	-8716
▁micros	-8717
▁anxiety	-8718
▁intensity	-8719
▁Kim	-8720
adium	-8721
▁Roman	-8722
▁blank	-8723
CP	-8724
▁nit	-8725
▁jack	-8726
ussion	-8727
▁escape	-8728
lections	-8729
amil	-8730
▁ram	-8731
▁crowd	-8732
▁substance	-8733
▁Ga	-8734
▁Ter	-8735
▁Policy	-8736
▁Consider	-8737
▁Michigan	-8738
▁ER	-8739
ller	-8740
Omega	-8741
ontal	-8742
▁semi	-8743
▁vibr	-8744
▁particles	-8745
(2	-8746
▁Jon	-8747
▁por	-8748
▁bottle	-8749
ync	-8750
▁pit	-8751
▁clock	-8752
▁periods	-8753
raid	-8754
▁Live	-8755
▁finger	-8756
▁introduce	-8757
▁laser	-8758
▁offense	-8759
+1	-8760
▁Ll	-8761
▁obst	-8762
▁deploy	-8763
▁doctors	-8764
▁explicit	-8765
▁Gir	-8766
▁Requ	-8767
overline	-8768
dep	-8769
▁72	-8770
ulum	-8771
▁pill	-8772
▁tourn	-8773
▁diversity	-8774
▁revolution	-8775
▁liver	-8776
▁toler	-8777
▁respective	-8778
▁nerv	-8779
▁Santa	-8780
▁insight	-8781
▁Event	-8782
▁exhaust	-8783
▁examined	-8784
▁Hor	-8785
▁Ren	-8786
▁Miller	-8787
▁Colorado	-8788
======	-8789
▁heating	-8790
▁Illinois	-8791
▁industries	-8792
▁56	-8793
ione	-8794
▁bags	-8795
▁convert	-8796
▁Building	-8797
DP	-8798
oded	-8799
▁Som	-8800
rible	-8801
▁grounds	-8802
▁classroom	-8803
▁evaluated	-8804
▁render	-8805
▁tracks	-8806
uct	-8807
▁9,	-8808
▁BM	-8809
▁phr	-8810
liers	-8811
▁Main	-8812
▁eligible	-8813
▁historic	-8814
▁personnel	-8815
▁statistics	-8816
▁1/2	-8817
▁lawyer	-8818
▁religion	-8819
GL	-8820
▁Jun	-8821
▁Mah	-8822
illiant	-8823
▁immune	-8824
▁equally	-8825
▁invited	-8826
vare	-8827
▁knock	-8828
▁likes	-8829
▁loves	-8830
▁tutor	-8831
▁targeted	-8832
▁screening	-8833
amps	-8834
▁Steve	-8835
▁boxes	-8836
ogy	-8837
▁Map	-8838
▁absorb	-8839
▁hoping	-8840
▁vertical	-8841
▁listening	-8842
").	-8843
▁Bible	-8844
Service	-8845
▁######	-8846
▁matches	-8847
▁enhanced	-8848
▁directory	-8849
GA	-8850
eting	-8851
▁honor	-8852
icious	-8853
rapeut	-8854
▁layout	-8855
ansas	-8856
▁illegal	-8857
FI	-8858
15.	-8859
return	-8860
"></	-8861
ennis	-8862
▁Ford	-8863
▁echo	-8864
ricted	-8865
▁union	-8866
4){	-8867
▁11,	-8868
▁800	-8869
small	-8870
VC	-8871
▁Cat	-8872
▁legs	-8873
▁satisfied	-8874
vit	-8875
▁Room	-8876
▁Without	-8877
Out	-8878
Color	-8879
▁naturally	-8880
▁sequences	-8881
▁52	-8882
Build	-8883
plant	-8884
▁Conf	-8885
▁maps	-8886
▁mask	-8887
▁Egypt	-8888
▁believes	-8889
▁concentrations	-8890
(1)	-8891
They	-8892
▁describes	-8893
▁Ariz	-8894
▁burden	-8895
▁concert	-8896
▁checking	-8897
▁improvements	-8898
site	-8899
▁mold	-8900
▁Charlie	-8901
bm	-8902
▁Es	-8903
▁incub	-8904
▁seeds	-8905
▁enables	-8906
▁kil	-8907
▁entity	-8908
▁southern	-8909
▁unus	-8910
▁smell	-8911
▁comprom	-8912
▁clothing	-8913
Te	-8914
▁ANY	-8915
cence	-8916
▁Bell	-8917
▁ru	-8918
unicip	-8919
▁decent	-8920
▁suffer	-8921
▁attempts	-8922
▁Insurance	-8923
▁behaviour	-8924
▁sensitivity	-8925
▁BE	-8926
aded	-8927
OB	-8928
▁Bal	-8929
▁tooth	-8930
▁deposit	-8931
▁tech	-8932
▁greatly	-8933
▁(1.	-8934
utors	-8935
▁cute	-8936
pection	-8937
▁intellect	-8938
▁Jac	-8939
▁lens	-8940
Americ	-8941
▁maxim	-8942
▁stuck	-8943
▁Remember	-8944
!)	-8945
▁SE	-8946
▁Ult	-8947
oked	-8948
folio	-8949
rovers	-8950
▁Civil	-8951
▁pix	-8952
▁tone	-8953
▁demands	-8954
▁Executive	-8955
imer	-8956
▁src	-8957
▁smile	-8958
theless	-8959
▁regulatory	-8960
cat	-8961
yard	-8962
ailing	-8963
▁codes	-8964
▁plain	-8965
issions	-8966
▁mechanical	-8967
▁Ni	-8968
▁Sn	-8969
▁appar	-8970
▁magazine	-8971
Over	-8972
▁Given	-8973
▁dental	-8974
▁Georgia	-8975
DR	-8976
▁ham	-8977
igate	-8978
▁Asian	-8979
▁Saint	-8980
▁murder	-8981
▁prohib	-8982
▁Administration	-8983
=1	-8984
▁seats	-8985
▁si	-8986
▁lect	-8987
▁cache	-8988
otation	-8989
▁damages	-8990
▁induced	-8991
▁Tax	-8992
▁alive	-8993
▁suffered	-8994
▁biological	-8995
ostic	-8996
▁compound	-8997
▁addressed	-8998
▁electricity	-8999
▁Tokyo	-9000
▁walked	-9001
ifferent	-9002
▁festival	-9003
12.	-9004
▁Chem	-9005
▁java	-9006
▁merch	-9007
▁Brazil	-9008
▁parallel	-9009
fold	-9010
▁Java	-9011
▁yard	-9012
▁neuro	-9013
▁Forest	-9014
▁voters	-9015
▁beneficial	-9016
*)	-9017
▁47	-9018
▁14.	-9019
▁unp	-9020
▁languages	-9021
}^	-9022
Point	-9023
oning	-9024
▁flag	-9025
▁Perform	-9026
▁Tay	-9027
inking	-9028
▁Sports	-9029
anned	-9030
▁None	-9031
▁Vill	-9032
arters	-9033
▁Games	-9034
vironments	-9035
kel	-9036
rer	-9037
Tube	-9038
▁font	-9039
▁lucky	-9040
▁gallery	-9041
▁Camb	-9042
▁dual	-9043
making	-9044
▁forever	-9045
▁texture	-9046
php	-9047
▁<<	-9048
quality	-9049
▁statute	-9050
▁writers	-9051
▁Pract	-9052
////////////////	-9053
▁ED	-9054
▁ads	-9055
5,000	-9056
eping	-9057
iral	-9058
▁managers	-9059
uis	-9060
▁funny	-9061
6-	-9062
▁Ky	-9063
▁era	-9064
▁Several	-9065
▁transcript	-9066
▁statistical	-9067
▁satisfaction	-9068
▁Pot	-9069
erver	-9070
▁lapt	-9071
▁weekly	-9072
▁healing	-9073
▁colleagues	-9074
ORT	-9075
▁ske	-9076
▁wash	-9077
ku	-9078
-1.	-9079
num	-9080
iking	-9081
▁flour	-9082
gi	-9083
edge	-9084
▁haz	-9085
▁std	-9086
▁leaf	-9087
▁automatic	-9088
▁lift	-9089
▁Beaut	-9090
▁proved	-9091
▁simult	-9092
▁Store	-9093
anguage	-9094
ervation	-9095
▁thousand	-9096
▁photography	-9097
▁HIV	-9098
▁broadcast	-9099
AF	-9100
At	-9101
▁Py	-9102
▁pH	-9103
ardens	-9104
▁enterprise	-9105
[]	-9106
▁URL	-9107
Image	-9108
▁Init	-9109
▁anymore	-9110
▁retirement	-9111
▁+=	-9112
▁<!	-9113
▁unw	-9114
▁Object	-9115
▁displays	-9116
▁temporary	-9117
dra	-9118
bell	-9119
▁Shop	-9120
▁Welcome	-9121
▁apparently	-9122
)?	-9123
erman	-9124
lessly	-9125
▁Francisco	-9126
▁compounds	-9127
▁suggestions	-9128
▁functionality	-9129
▁GL	-9130
▁Rom	-9131
space	-9132
▁Farm	-9133
▁closing	-9134
Size	-9135
ugin	-9136
month	-9137
▁alleg	-9138
▁alongside	-9139
▁threshold	-9140
▁1990	-9141
▁Works	-9142
▁permit	-9143
ikes	-9144
ector	-9145
▁Sher	-9146
▁cere	-9147
▁Latin	-9148
▁lymph	-9149
▁metabol	-9150
KE	-9151
▁subsid	-9152
▁photograp	-9153
▁pregnancy	-9154
▁purs	-9155
▁holes	-9156
induced	-9157
▁Labor	-9158
▁Engineering	-9159
▁250	-9160
▁LED	-9161
▁Oil	-9162
▁Sus	-9163
▁sharp	-9164
▁Process	-9165
▁fraction	-9166
▁workshop	-9167
▁discovery	-9168
▁documentation	-9169
odge	-9170
chron	-9171
inals	-9172
rat	-9173
▁pig	-9174
otherapy	-9175
▁contest	-9176
▁integer	-9177
▁transactions	-9178
▁ul	-9179
▁USB	-9180
▁crash	-9181
cut	-9182
▁iP	-9183
etary	-9184
▁Come	-9185
▁Total	-9186
▁screw	-9187
▁Standard	-9188
▁dumpster	-9189
▁computers	-9190
▁FL	-9191
▁mile	-9192
▁hybrid	-9193
▁reveal	-9194
▁concluded	-9195
sd	-9196
▁dent	-9197
▁magic	-9198
▁crusher	-9199
▁tracking	-9200
▁vegetables	-9201
▁tact	-9202
ologist	-9203
▁memories	-9204
▁discretion	-9205
▁$5	-9206
▁stack	-9207
▁rating	-9208
▁strike	-9209
▁decline	-9210
▁Corporation	-9211
▁NULL	-9212
▁Print	-9213
▁Travel	-9214
▁losses	-9215
▁appointed	-9216
IE	-9217
▁Pak	-9218
▁Ball	-9219
▁hopes	-9220
▁everywhere	-9221
▁°	-9222
ulin	-9223
▁belief	-9224
izz	-9225
card	-9226
▁Create	-9227
▁repeat	-9228
▁elected	-9229
▁examine	-9230
isted	-9231
▁synd	-9232
▁wid	-9233
▁Spain	-9234
athered	-9235
ificial	-9236
▁panels	-9237
▁pointed	-9238
▁capabilities	-9239
PT	-9240
alo	-9241
▁Help	-9242
create	-9243
▁Modern	-9244
’,	-9245
ocity	-9246
▁neutral	-9247
▁optimal	-9248
▁Brook	-9249
MT	-9250
enc	-9251
ila	-9252
▁Pop	-9253
rogen	-9254
herent	-9255
▁Round	-9256
▁giant	-9257
operatorname	-9258
▁interpretation	-9259
,0	-9260
▁0)	-9261
anna	-9262
apore	-9263
▁blow	-9264
iatric	-9265
1*	-9266
RT	-9267
▁closest	-9268
▁entrance	-9269
▁advantages	-9270
▁rib	-9271
▁soph	-9272
ILL	-9273
erior	-9274
▁Results	-9275
▁explains	-9276
▁investigated	-9277
▁Fun	-9278
Trans	-9279
▁Bath	-9280
aneously	-9281
-15	-9282
▁SN	-9283
▁Bed	-9284
▁Ray	-9285
▁Charles	-9286
tics	-9287
bered	-9288
▁Instagram	-9289
▁intention	-9290
dir	-9291
▁lad	-9292
plates	-9293
▁injured	-9294
▁variation	-9295
▁violation	-9296
▁incredibly	-9297
▁hasn	-9298
phones	-9299
▁forum	-9300
▁pleasure	-9301
▁provisions	-9302
atern	-9303
▁bills	-9304
▁resort	-9305
▁wooden	-9306
▁residence	-9307
▁tape	-9308
▁crypt	-9309
▁dishes	-9310
▁picking	-9311
▁literally	-9312
▁returning	-9313
▁representing	-9314
▁hence	-9315
▁imper	-9316
▁()	-9317
▁Uk	-9318
▁Him	-9319
craft	-9320
uties	-9321
▁lifetime	-9322
▁warranty	-9323
▁governments	-9324
▁Ba	-9325
tons	-9326
▁50%	-9327
press	-9328
▁2001	-9329
▁Swed	-9330
▁buck	-9331
▁logo	-9332
▁pace	-9333
holder	-9334
▁factory	-9335
▁faculty	-9336
▁Meanwhile	-9337
▁determining	-9338
▁tomat	-9339
▁partial	-9340
▁thereby	-9341
▁Application	-9342
▁spat	-9343
▁2018,	-9344
▁Gener	-9345
▁pairs	-9346
cker	-9347
▁Joseph	-9348
▁accompan	-9349
sf	-9350
▁BC	-9351
mann	-9352
▁10%	-9353
▁Need	-9354
▁Rule	-9355
▁Night	-9356
▁Video	-9357
▁legit	-9358
uscript	-9359
▁30,	-9360
local	-9361
▁2003	-9362
▁relating	-9363
▁Bang	-9364
▁Prom	-9365
google	-9366
▁YouTube	-9367
▁specialist	-9368
km	-9369
▁vo	-9370
duate	-9371
▁adequate	-9372
▁HB	-9373
▁fits	-9374
clusions	-9375
▁checked	-9376
▁controvers	-9377
▁transformation	-9378
2]	-9379
▁Sat	-9380
▁oxygen	-9381
iversary	-9382
▁reviewed	-9383
2_	-9384
▁Bob	-9385
▁Spirit	-9386
▁upgrade	-9387
▁breaking	-9388
▁holidays	-9389
det	-9390
▁Os	-9391
▁Run	-9392
▁shr	-9393
▁afraid	-9394
▁awards	-9395
▁deaths	-9396
di	-9397
▁moral	-9398
▁0*	-9399
▁Ho	-9400
▁lin	-9401
▁Holy	-9402
varepsilon	-9403
▁defendants	-9404
Me	-9405
Code	-9406
▁bat	-9407
ithub	-9408
▁glut	-9409
▁trim	-9410
▁universe	-9411
▁estimates	-9412
.</	-9413
▁faces	-9414
▁Rights	-9415
05	-9416
▁okay	-9417
▁Professor	-9418
▁ownership	-9419
▁acquisition	-9420
EXT	-9421
athy	-9422
▁gorgeous	-9423
())	-9424
▁(6	-9425
▁ster	-9426
▁2016,	-9427
▁aband	-9428
▁ensuring	-9429
UI	-9430
▁inch	-9431
▁till	-9432
Read	-9433
enny	-9434
ainer	-9435
fileID	-9436
▁Guide	-9437
▁dollar	-9438
▁radiation	-9439
▁institution	-9440
▁Due	-9441
▁boot	-9442
▁tube	-9443
friendly	-9444
wan	-9445
ruits	-9446
▁aer	-9447
▁Prior	-9448
ionic	-9449
cludes	-9450
▁indicating	-9451
▁Dub	-9452
▁fewer	-9453
']	-9454
imp	-9455
onto	-9456
▁preced	-9457
▁nob	-9458
▁2004	-9459
▁asset	-9460
▁rising	-9461
▁damaged	-9462
▁opposed	-9463
▁environments	-9464
aze	-9465
▁Case	-9466
onents	-9467
▁Material	-9468
▁entering	-9469
▁Dun	-9470
▁complement	-9471
ador	-9472
▁WITH	-9473
▁Silver	-9474
▁talked	-9475
▁opposition	-9476
▁transferred	-9477
▁Kingdom	-9478
▁arguments	-9479
▁signature	-9480
anth	-9481
▁kin	-9482
▁cock	-9483
▁Pur	-9484
ochem	-9485
normal	-9486
oz	-9487
▁15,	-9488
▁warning	-9489
)=	-9490
▁-3*	-9491
▁acute	-9492
▁matching	-9493
Big	-9494
sis	-9495
▁Ess	-9496
▁Kat	-9497
▁Base	-9498
acious	-9499
▁Living	-9500
▁flower	-9501
▁swimming	-9502
▁dependent	-9503
▁certificate	-9504
icide	-9505
▁shots	-9506
ilation	-9507
▁--------	-9508
MO	-9509
From	-9510
▁Fox	-9511
▁asp	-9512
▁morph	-9513
▁joining	-9514
▁×	-9515
ilton	-9516
▁Express	-9517
]\],	-9518
atile	-9519
iances	-9520
▁involvement	-9521
Lay	-9522
▁CI	-9523
blog	-9524
author	-9525
operative	-9526
▁operated	-9527
▁fifth	-9528
▁applies	-9529
▁guaranteed	-9530
▁IC	-9531
▁Writ	-9532
▁mood	-9533
▁pink	-9534
▁outer	-9535
▁poker	-9536
▁Daniel	-9537
▁retrie	-9538
▁·	-9539
▁gram	-9540
▁waters	-9541
▁observations	-9542
▁Ra	-9543
▁Ash	-9544
▁dys	-9545
▁lake	-9546
▁cookies	-9547
▁pricing	-9548
160	-9549
aya	-9550
▁Son	-9551
▁Math	-9552
▁convin	-9553
▁Op	-9554
onds	-9555
▁Select	-9556
▁diameter	-9557
▁completion	-9558
▁unexpected	-9559
▁bund	-9560
▁dynamics	-9561
▁proportion	-9562
▁jurisdiction	-9563
mi	-9564
Group	-9565
▁Ryan	-9566
▁intense	-9567
▁spots	-9568
▁spray	-9569
▁hotels	-9570
vo	-9571
▁’	-9572
▁embod	-9573
▁faced	-9574
▁recycl	-9575
MB	-9576
▁recruit	-9577
lyn	-9578
stery	-9579
▁tempor	-9580
▁Clinton	-9581
▁adverse	-9582
▁cluster	-9583
▁Bush	-9584
▁lung	-9585
▁upgra	-9586
▁waves	-9587
▁northern	-9588
▁reserved	-9589
▁suggesting	-9590
/1	-9591
isa	-9592
gener	-9593
rison	-9594
iations	-9595
▁Effect	-9596
▁orange	-9597
▁resolve	-9598
▁assessed	-9599
▁4-	-9600
ometric	-9601
▁extends	-9602
▁cultures	-9603
▁traveling	-9604
rif	-9605
*]{}	-9606
▁tens	-9607
▁renov	-9608
▁yards	-9609
▁dreams	-9610
▁compact	-9611
▁addresses	-9612
▁0.5	-9613
▁pocket	-9614
▁acknowled	-9615
▁Imm	-9616
▁drinks	-9617
,'	-9618
PN	-9619
high	-9620
irts	-9621
seek	-9622
▁odd	-9623
otimes	-9624
▁borrow	-9625
▁dimensions	-9626
▁stir	-9627
product	-9628
▁Personal	-9629
▁volunteers	-9630
enda	-9631
▁Luc	-9632
▁fer	-9633
ership	-9634
▁harder	-9635
▁listing	-9636
1_	-9637
▁fiber	-9638
▁directions	-9639
cribed	-9640
▁medication	-9641
▁jew	-9642
▁lau	-9643
store	-9644
▁Exam	-9645
▁Disney	-9646
▁disturb	-9647
▁Hence	-9648
▁satell	-9649
tml	-9650
omer	-9651
▁Ten	-9652
▁ans	-9653
omatic	-9654
▁Treat	-9655
▁gentle	-9656
▁accommodation	-9657
ito	-9658
▁Lloy	-9659
▁gonna	-9660
▁ocean	-9661
imation	-9662
▁discussions	-9663
iox	-9664
rot	-9665
ugs	-9666
▁filling	-9667
▁graphics	-9668
▁identical	-9669
bsite	-9670
inson	-9671
▁laid	-9672
▁aimed	-9673
▁broke	-9674
▁Circuit	-9675
▁chances	-9676
▁enjoying	-9677
align	-9678
ipher	-9679
When	-9680
▁divor	-9681
▁Garden	-9682
▁therap	-9683
▁recipes	-9684
▁studying	-9685
uh	-9686
SYS	-9687
▁(7	-9688
▁2017,	-9689
duction	-9690
▁visits	-9691
▁whilst	-9692
▁attitude	-9693
▁licensed	-9694
Line	-9695
iously	-9696
▁Training	-9697
▁references	-9698
▁14,	-9699
▁pad	-9700
▁aims	-9701
▁math	-9702
enders	-9703
▁Greek	-9704
▁quantity	-9705
▁accessories	-9706
ylvan	-9707
▁profiles	-9708
▁apparatus	-9709
▁translation	-9710
3}	-9711
urities	-9712
▁heavily	-9713
supplementary	-9714
▁Hou	-9715
▁radi	-9716
▁Stock	-9717
▁guitar	-9718
▁strange	-9719
Co	-9720
Aut	-9721
▁(0	-9722
▁54	-9723
▁initiative	-9724
bold	-9725
▁mild	-9726
▁Clear	-9727
▁(8	-9728
▁Ah	-9729
▁20,	-9730
▁Rub	-9731
clear	-9732
▁2014.	-9733
▁Safety	-9734
▁expanded	-9735
iors	-9736
▁Dam	-9737
▁modify	-9738
oot	-9739
orks	-9740
anted	-9741
first	-9742
▁Members	-9743
▁scenario	-9744
▁dimension	-9745
rend	-9746
▁Eagle	-9747
▁Queen	-9748
▁reson	-9749
▁Palest	-9750
gel	-9751
▁13,	-9752
icular	-9753
inator	-9754
▁Number	-9755
▁abstract	-9756
▁accounting	-9757
GC	-9758
▁Sir	-9759
▁bio	-9760
▁Summer	-9761
▁ending	-9762
▁Fac	-9763
▁Lew	-9764
▁Mos	-9765
▁2012.	-9766
▁Eagles	-9767
▁processed	-9768
\,	-9769
acle	-9770
hour	-9771
inos	-9772
olean	-9773
▁minister	-9774
▁contracts	-9775
▁structural	-9776
bury	-9777
▁Cru	-9778
ogenic	-9779
▁Arizona	-9780
▁falling	-9781
▁Singapore	-9782
▁31,	-9783
▁Link	-9784
▁puts	-9785
▁sear	-9786
▁exceptional	-9787
▁Polit	-9788
▁relates	-9789
▁declared	-9790
▁encouraged	-9791
anes	-9792
▁hub	-9793
icking	-9794
▁bacteria	-9795
rightarrow	-9796
}}(	-9797
greg	-9798
ashes	-9799
▁recall	-9800
▁posting	-9801
▁(¥	-9802
▁sod	-9803
▁franch	-9804
▁reaching	-9805
▁explanation	-9806
Bar	-9807
▁2013.	-9808
▁currency	-9809
▁Ox	-9810
aver	-9811
▁Rand	-9812
▁Share	-9813
▁focuses	-9814
▁disorder	-9815
/5	-9816
onder	-9817
▁flexibility	-9818
▁ly	-9819
▁15.	-9820
▁aver	-9821
▁hosted	-9822
▁clust	-9823
▁depos	-9824
▁Airport	-9825
▁Jr	-9826
▁Carl	-9827
▁coat	-9828
▁bunch	-9829
▁gained	-9830
nut	-9831
▁[1	-9832
▁],	-9833
0.00	-9834
▁sed	-9835
Count	-9836
▁Bern	-9837
usetts	-9838
▁Heart	-9839
▁blend	-9840
achusetts	-9841
▁manip	-9842
▁cameras	-9843
▁wherein	-9844
jud	-9845
elling	-9846
▁testified	-9847
Us	-9848
▁uk	-9849
aste	-9850
▁Within	-9851
▁forgot	-9852
▁portfolio	-9853
▁preparing	-9854
AGE	-9855
Act	-9856
▁Area	-9857
▁func	-9858
▁Short	-9859
▁Smart	-9860
▁significance	-9861
03	-9862
Request	-9863
▁deeply	-9864
ventions	-9865
▁purchasing	-9866
▁$10	-9867
▁aggreg	-9868
▁elsewhere	-9869
▁LA	-9870
▁16,	-9871
▁202	-9872
▁Study	-9873
▁roads	-9874
▁1-	-9875
▁aged	-9876
▁bias	-9877
▁seasons	-9878
Node	-9879
▁Quality	-9880
▁victims	-9881
▁emails	-9882
▁downtown	-9883
inch	-9884
▁Eth	-9885
▁Rose	-9886
▁Viet	-9887
▁stem	-9888
agraph	-9889
▁speaker	-9890
▁focusing	-9891
▁portable	-9892
▁substrate	-9893
GF	-9894
▁).	-9895
▁Father	-9896
▁Taylor	-9897
▁combine	-9898
▁Previous	-9899
▁sees	-9900
▁mistake	-9901
aud	-9902
idity	-9903
▁wake	-9904
riving	-9905
▁opinions	-9906
▁surfaces	-9907
▁signaling	-9908
700	-9909
▁',	-9910
nbsp	-9911
note	-9912
▁lets	-9913
▁trips	-9914
▁п	-9915
▁Storage	-9916
rus	-9917
▁manuscript	-9918
Press	-9919
▁argue	-9920
▁productivity	-9921
▁CC	-9922
remony	-9923
▁locally	-9924
▁professor	-9925
oves	-9926
▁SEO	-9927
asion	-9928
▁Stan	-9929
▁arrival	-9930
▁brilliant	-9931
olt	-9932
uum	-9933
gebra	-9934
▁chest	-9935
▁observe	-9936
▁disorders	-9937
mid	-9938
▁Ak	-9939
▁pars	-9940
▁yours	-9941
▁Action	-9942
▁regime	-9943
▁Kitchen	-9944
▁Professional	-9945
racle	-9946
▁pilot	-9947
▁passes	-9948
04	-9949
:"	-9950
WS	-9951
5){	-9952
una	-9953
▁drag	-9954
▁champions	-9955
▁investments	-9956
▁NAS	-9957
enter	-9958
icket	-9959
▁smoke	-9960
▁carpet	-9961
▁robust	-9962
▁Chapter	-9963
▁consistently	-9964
▁*)	-9965
aired	-9966
▁2002	-9967
▁arrested	-9968
)$,	-9969
▁bab	-9970
▁quantum	-9971
▁skilled	-9972
▁personality	-9973
▁Rh	-9974
▁_@	-9975
days	-9976
▁riv	-9977
▁farmers	-9978
▁Analysis	-9979
ICE	-9980
OST	-9981
▁3:	-9982
▁Foot	-9983
▁2015,	-9984
▁Force	-9985
▁hypothes	-9986
▁depression	-9987
▁<!--	-9988
▁Agency	-9989
▁copies	-9990
oli	-9991
▁edit	-9992
▁rect	-9993
▁explo	-9994
▁staying	-9995
▁watched	-9996
▁frequent	-9997
emed	-9998
▁edges	-9999
▁flights	-10000
▁administrative	-10001
izza	-10002
being	-10003
▁drain	-10004
ylvania	-10005
▁complexity	-10006
URL	-10007
zes	-10008
ucky	-10009
▁asc	-10010
▁Holly	-10011
▁Third	-10012
▁uncom	-10013
*-	-10014
thew	-10015
orted	-10016
ropical	-10017
▁Donald	-10018
cellular	-10019
▁Medicine	-10020
▁philosophy	-10021
▁с	-10022
▁Mrs	-10023
▁delet	-10024
▁finite	-10025
▁observation	-10026
}=	-10027
INE	-10028
river	-10029
rients	-10030
▁trigger	-10031
▁engaging	-10032
▁doub	-10033
▁assault	-10034
▁console	-10035
MR	-10036
▁gau	-10037
▁hem	-10038
▁loose	-10039
▁ordinary	-10040
▁difficulty	-10041
7-	-10042
IES	-10043
Source	-10044
HC	-10045
▁fi	-10046
▁Regard	-10047
▁53	-10048
▁Cit	-10049
proof	-10050
wered	-10051
▁buyers	-10052
▁packed	-10053
▁captured	-10054
▁Marketing	-10055
▁promoting	-10056
web	-10057
cking	-10058
▁Ideas	-10059
▁Sales	-10060
▁Learning	-10061
oids	-10062
▁heter	-10063
▁meets	-10064
▁deeper	-10065
▁enabled	-10066
DE	-10067
dem	-10068
▁ES	-10069
sell	-10070
▁16.	-10071
ogene	-10072
ordan	-10073
▁scal	-10074
▁alumin	-10075
_{2	-10076
▁nm	-10077
▁Buff	-10078
▁cort	-10079
Manager	-10080
▁ranging	-10081
TV	-10082
▁5%	-10083
called	-10084
▁generic	-10085
_3	-10086
▁tu	-10087
▁Simpl	-10088
forward	-10089
SU	-10090
tain	-10091
▁Core	-10092
▁Iron	-10093
▁phones	-10094
▁conclude	-10095
▁objectives	-10096
-09	-10097
equal	-10098
▁defic	-10099
▁weren	-10100
process	-10101
ractions	-10102
▁elections	-10103
▁xml	-10104
rowse	-10105
▁Princ	-10106
▁Eastern	-10107
ASS	-10108
IST	-10109
▁Has	-10110
▁Sche	-10111
▁rational	-10112
▁contributed	-10113
▁hes	-10114
▁Comb	-10115
▁oxid	-10116
acular	-10117
▁raising	-10118
▁forecast	-10119
▁consultation	-10120
▁rend	-10121
▁stood	-10122
▁delete	-10123
▁organis	-10124
cs	-10125
▁wondering	-10126
^{2	-10127
▁controller	-10128
▁shif	-10129
summary	-10130
▁smoking	-10131
▁suddenly	-10132
▁DVD	-10133
▁bid	-10134
paper	-10135
▁bulk	-10136
screen	-10137
▁2014,	-10138
▁counts	-10139
▁potato	-10140
▁scenes	-10141
▁Sky	-10142
▁wrt	-10143
▁serum	-10144
▁overlook	-10145
▁intellectual	-10146
▁41	-10147
▁EC	-10148
▁Blog	-10149
▁Budd	-10150
▁gluc	-10151
▁Stone	-10152
▁spell	-10153
rapeutic	-10154
▁Everyone	-10155
aria	-10156
▁Age	-10157
▁Sem	-10158
▁tired	-10159
▁convenience	-10160
▁PDF	-10161
▁Eric	-10162
▁fert	-10163
▁Natural	-10164
▁assumed	-10165
▁descript	-10166
▁democracy	-10167
09	-10168
ottom	-10169
▁Join	-10170
▁bull	-10171
▁coe	-10172
ampion	-10173
▁dispos	-10174
▁equity	-10175
▁refund	-10176
▁organisation	-10177
COM	-10178
▁GR	-10179
disc	-10180
onia	-10181
▁rats	-10182
▁HR	-10183
▁-->	-10184
▁cuts	-10185
▁lesson	-10186
▁logic	-10187
▁opens	-10188
▁convey	-10189
▁overnight	-10190
isp	-10191
wart	-10192
Index	-10193
athan	-10194
bration	-10195
▁ok	-10196
isdom	-10197
▁assemb	-10198
▁probability	-10199
HL	-10200
▁Ur	-10201
model	-10202
▁wins	-10203
▁desktop	-10204
mt	-10205
uz	-10206
▁spark	-10207
▁editing	-10208
▁cellular	-10209
▁newspaper	-10210
▁laboratory	-10211
-1)	-10212
Att	-10213
rets	-10214
▁Bru	-10215
▁curric	-10216
▁pounds	-10217
▁thermal	-10218
▁NFL	-10219
▁nil	-10220
▁pathway	-10221
▁moderate	-10222
▁requiring	-10223
▁),	-10224
pgen	-10225
▁ink	-10226
▁trib	-10227
▁cheat	-10228
▁instruments	-10229
wind	-10230
orous	-10231
▁refe	-10232
▁bands	-10233
▁boundary	-10234
HD	-10235
hr	-10236
wa	-10237
asis	-10238
step	-10239
height	-10240
▁Penns	-10241
▁shoulder	-10242
▁mountains	-10243
low	-10244
uan	-10245
▁bind	-10246
▁Henry	-10247
▁interviews	-10248
NT	-10249
tw	-10250
.[@	-10251
ogram	-10252
▁smallest	-10253
roups	-10254
▁Hold	-10255
▁juice	-10256
▁Choose	-10257
▁Senior	-10258
▁circle	-10259
▁rarely	-10260
▁heading	-10261
aron	-10262
▁Kent	-10263
▁Lind	-10264
▁evil	-10265
▁elegant	-10266
▁hospitals	-10267
bin	-10268
iscal	-10269
▁inval	-10270
property	-10271
▁removing	-10272
▁participating	-10273
▁nin	-10274
▁fest	-10275
▁Officer	-10276
▁muscles	-10277
▁unusual	-10278
5-	-10279
\],	-10280
▁0.1	-10281
▁Dog	-10282
Inter	-10283
abling	-10284
▁admin	-10285
▁falls	-10286
▁interval	-10287
▁rotation	-10288
▁surgical	-10289
▁Ang	-10290
▁Text	-10291
▁hits	-10292
▁compos	-10293
▁delivering	-10294
1/	-10295
query	-10296
▁Corp	-10297
▁preval	-10298
XX	-10299
User	-10300
▁600	-10301
▁LLC	-10302
▁wound	-10303
▁expense	-10304
▁vintage	-10305
gt	-10306
▁>>	-10307
▁Rod	-10308
burgh	-10309
▁checks	-10310
▁Version	-10311
**)	-10312
▁0}	-10313
▁Eq	-10314
ghan	-10315
▁17.	-10316
▁loyal	-10317
▁Customer	-10318
!!!!	-10319
wall	-10320
▁Sav	-10321
▁hip	-10322
words	-10323
▁venue	-10324
current	-10325
▁promot	-10326
▁exploring	-10327
▁representatives	-10328
olis	-10329
▁ski	-10330
▁fing	-10331
▁numer	-10332
▁Capital	-10333
▁servers	-10334
▁Cro	-10335
found	-10336
▁caps	-10337
▁Radio	-10338
▁Property	-10339
▁embry	-10340
]:	-10341
rays	-10342
urse	-10343
▁cul	-10344
world	-10345
▁Toronto	-10346
▁speakers	-10347
▁operators	-10348
.$$	-10349
▁mM	-10350
week	-10351
▁bin	-10352
▁Server	-10353
▁Attorney	-10354
▁uncertain	-10355
yes	-10356
▁Gro	-10357
match	-10358
▁Fred	-10359
▁publ	-10360
iments	-10361
▁Brother	-10362
▁designers	-10363
▁-9	-10364
chain	-10365
iology	-10366
ocratic	-10367
▁developer	-10368
uana	-10369
itate	-10370
▁headed	-10371
▁Democrats	-10372
▁Capt	-10373
▁chip	-10374
▁childhood	-10375
aza	-10376
▁Nic	-10377
▁Psych	-10378
▁Studio	-10379
▁loaded	-10380
▁$1.	-10381
▁Var	-10382
minute	-10383
ruptcy	-10384
▁datas	-10385
▁gotten	-10386
▁overcome	-10387
▁Fre	-10388
▁eliminate	-10389
OUT	-10390
ista	-10391
▁Wren	-10392
▁scar	-10393
iating	-10394
▁assay	-10395
osystem	-10396
dependent	-10397
▁produces	-10398
pad	-10399
▁02	-10400
▁6*	-10401
▁Bh	-10402
prot	-10403
umns	-10404
▁ignore	-10405
ustration	-10406
((	-10407
thm	-10408
▁BR	-10409
fers	-10410
ulpt	-10411
ename	-10412
▁Made	-10413
▁tort	-10414
Connect	-10415
▁Wilson	-10416
▁resume	-10417
▁spokes	-10418
▁thickness	-10419
MD	-10420
-17	-10421
asm	-10422
uns	-10423
▁Spr	-10424
▁1980	-10425
▁2012,	-10426
▁embed	-10427
▁viewing	-10428
ught	-10429
▁hide	-10430
▁settlement	-10431
One	-10432
▁-4*	-10433
▁Was	-10434
▁coh	-10435
▁voc	-10436
▁Linux	-10437
▁wanting	-10438
▁composed	-10439
▁$4	-10440
▁fed	-10441
▁stimul	-10442
▁feeding	-10443
Do	-10444
Model	-10445
eness	-10446
▁Happy	-10447
▁movements	-10448
aft	-10449
▁IF	-10450
eman	-10451
▁ion	-10452
onymous	-10453
▁universal	-10454
(2)	-10455
Che	-10456
aws	-10457
▁Barb	-10458
▁Early	-10459
▁disag	-10460
▁contacts	-10461
150	-10462
▁army	-10463
ductor	-10464
▁Friend	-10465
▁Source	-10466
▁chairs	-10467
▁cognitive	-10468
▁territory	-10469
mem	-10470
lined	-10471
▁Auto	-10472
▁classical	-10473
dimensional	-10474
▁photographs	-10475
-16	-10476
UST	-10477
spl	-10478
Query	-10479
apache	-10480
▁modules	-10481
▁survive	-10482
▁Pennsylvania	-10483
INT	-10484
▁median	-10485
▁nursing	-10486
▁appellant	-10487
▁physician	-10488
▁predicted	-10489
5).	-10490
bow	-10491
▁mes	-10492
▁Adam	-10493
ela	-10494
▁(!	-10495
acher	-10496
▁bomb	-10497
▁Visit	-10498
▁boards	-10499
▁labels	-10500
▁remainder	-10501
▁prevention	-10502
isi	-10503
▁ub	-10504
util	-10505
▁reads	-10506
▁Avenue	-10507
▁mirror	-10508
▁promotion	-10509
Fi	-10510
han	-10511
▁${	-10512
▁dad	-10513
verty	-10514
▁extraord	-10515
▁Oak	-10516
search	-10517
symbol	-10518
▁Credit	-10519
▁insights	-10520
{2	-10521
▁hell	-10522
▁patent	-10523
▁boss	-10524
▁temple	-10525
▁Mountain	-10526
▁molecules	-10527
▁facilitate	-10528
▁interactive	-10529
▁argues	-10530
▁gaming	-10531
-18	-10532
▁3)	-10533
lang	-10534
▁193	-10535
▁rum	-10536
▁matt	-10537
▁Bitcoin	-10538
▁cancell	-10539
▁suppliers	-10540
________________	-10541
08	-10542
▁Wi	-10543
pton	-10544
vard	-10545
▁ALL	-10546
button	-10547
github	-10548
▁pride	-10549
▁Histor	-10550
▁legend	-10551
▁nights	-10552
▁Emer	-10553
▁Syria	-10554
▁debut	-10555
▁rehab	-10556
▁toile	-10557
▁restrictions	-10558
engers	-10559
▁Think	-10560
▁grate	-10561
▁laptop	-10562
▁Blu	-10563
▁surge	-10564
Default	-10565
▁emotions	-10566
▁supplied	-10567
hot	-10568
CHAR	-10569
▁Cub	-10570
aware	-10571
▁orth	-10572
▁Broad	-10573
▁baking	-10574
▁refused	-10575
▁strains	-10576
▁arranged	-10577
▁encounter	-10578
▁substantially	-10579
TL	-10580
bro	-10581
▁bool	-10582
▁offset	-10583
▁Houston	-10584
▁destroyed	-10585
▁29.	-10586
igrants	-10587
▁Altern	-10588
infinity	-10589
ptr	-10590
▁JR	-10591
▁HTML	-10592
▁Bridge	-10593
ramework	-10594
▁cooling	-10595
▁poverty	-10596
▁57	-10597
ifer	-10598
▁Drive	-10599
▁float	-10600
▁emerging	-10601
▁composite	-10602
-14	-10603
iley	-10604
Field	-10605
▁banking	-10606
sur	-10607
▁Ask	-10608
▁rubber	-10609
▁reactions	-10610
▁18,	-10611
Property	-10612
▁accused	-10613
ABLE	-10614
▁serial	-10615
▁Lat	-10616
▁```	-10617
▁refrig	-10618
▁engines	-10619
▁repairs	-10620
▁tournament	-10621
rust	-10622
▁Ros	-10623
power	-10624
▁brid	-10625
semble	-10626
▁Univers	-10627
▁Introduction	-10628
rons	-10629
irable	-10630
▁catal	-10631
Element	-10632
▁permitted	-10633
PI	-10634
dat	-10635
ethe	-10636
▁FREE	-10637
▁axis	-10638
▁flying	-10639
▁killing	-10640
▁screens	-10641
▁adjacent	-10642
▁attending	-10643
▁(“	-10644
▁ye	-10645
oven	-10646
▁argued	-10647
▁casual	-10648
▁danger	-10649
▁overse	-10650
▁prayer	-10651
▁Student	-10652
▁ceremony	-10653
▁stainless	-10654
▁Ron	-10655
▁tel	-10656
▁url	-10657
▁Sale	-10658
▁harvest	-10659
ictionary	-10660
▁Ministry	-10661
▁disabled	-10662
▁separated	-10663
▁efficiently	-10664
▁cher	-10665
Message	-10666
Resp	-10667
▁consec	-10668
!”	-10669
GS	-10670
ao	-10671
alg	-10672
aped	-10673
▁cow	-10674
ospel	-10675
ouses	-10676
▁Fall	-10677
▁wise	-10678
▁Steel	-10679
Handler	-10680
▁Limited	-10681
▁Philipp	-10682
▁everybody	-10683
▁exhibition	-10684
▁characterized	-10685
aux	-10686
**2.	-10687
▁19,	-10688
erred	-10689
▁$100	-10690
▁beta	-10691
Stream	-10692
▁integrity	-10693
orneys	-10694
▁fails	-10695
▁themes	-10696
▁Country	-10697
▁clicking	-10698
▁Currently	-10699
▁converted	-10700
({	-10701
Ass	-10702
dot	-10703
▁hill	-10704
nesota	-10705
▁Irish	-10706
▁riding	-10707
▁Private	-10708
▁subsequently	-10709
:19	-10710
▁cotton	-10711
outheast	-10712
▁reprodu	-10713
pher	-10714
▁neu	-10715
Input	-10716
▁pron	-10717
▁tons	-10718
▁Davis	-10719
▁loving	-10720
▁Overall	-10721
▁affects	-10722
▁Represent	-10723
▁meaningful	-10724
.](	-10725
appa	-10726
inyl	-10727
▁(18	-10728
chester	-10729
ologists	-10730
▁somehow	-10731
FOR	-10732
▁:)	-10733
▁Bull	-10734
▁calm	-10735
▁Nation	-10736
▁officially	-10737
▁cooperation	-10738
▁85	-10739
▁pour	-10740
ortion	-10741
▁folder	-10742
▁crystal	-10743
▁satisfy	-10744
▁execution	-10745
AK	-10746
▁Mom	-10747
chers	-10748
▁Rail	-10749
▁prox	-10750
▁finest	-10751
▁forming	-10752
▁packaging	-10753
▁virtually	-10754
▁performances	-10755
tail	-10756
▁Hig	-10757
▁honey	-10758
▁baseball	-10759
▁assistant	-10760
▁inspection	-10761
)-	-10762
2;	-10763
mediate	-10764
▁refuge	-10765
▁unlikely	-10766
▁restricted	-10767
isting	-10768
▁valve	-10769
▁Golden	-10770
▁identifying	-10771
▁51	-10772
▁AB	-10773
achi	-10774
▁Cand	-10775
utable	-10776
▁frames	-10777
▁velocity	-10778
▁measuring	-10779
▁certification	-10780
\!	-10781
▁24,	-10782
▁Emp	-10783
▁drives	-10784
▁ruling	-10785
▁Matthew	-10786
2*	-10787
▁jun	-10788
▁soldiers	-10789
letter	-10790
▁tonight	-10791
▁acknowledge	-10792
}^{\	-10793
▁Kong	-10794
▁bran	-10795
▁Cloud	-10796
▁incent	-10797
▁nations	-10798
▁considerable	-10799
▁corn	-10800
▁titles	-10801
Reg	-10802
▁2013,	-10803
▁Determ	-10804
▁acquire	-10805
▁Defendant	-10806
pal	-10807
onom	-10808
pson	-10809
▁Scient	-10810
▁colours	-10811
▁volunteer	-10812
rous	-10813
▁Hong	-10814
through	-10815
▁backup	-10816
▁stroke	-10817
▁baseline	-10818
▁responded	-10819
▁importantly	-10820
▁gly	-10821
▁Want	-10822
▁compatible	-10823
▁-1.	-10824
inery	-10825
▁radical	-10826
▁Massachusetts	-10827
▁tie	-10828
Status	-10829
▁resident	-10830
▁disability	-10831
▁effectiveness	-10832
rl	-10833
Gen	-10834
owa	-10835
▁58	-10836
heet	-10837
sens	-10838
▁gym	-10839
orses	-10840
adel	-10841
▁pept	-10842
▁neglig	-10843
▁pepper	-10844
▁entries	-10845
▁Similarly	-10846
▁grab	-10847
▁shed	-10848
▁worker	-10849
▁syndrome	-10850
ACK	-10851
▁beam	-10852
▁Grant	-10853
▁admit	-10854
▁hosts	-10855
perties	-10856
▁intake	-10857
▁plasma	-10858
▁compete	-10859
▁founder	-10860
[\	-10861
ERT	-10862
▁symm	-10863
▁Install	-10864
▁Website	-10865
▁implied	-10866
▁roughly	-10867
▁tissues	-10868
ders	-10869
rand	-10870
▁exch	-10871
▁Level	-10872
▁antibody	-10873
SI	-10874
▁25,	-10875
▁Cut	-10876
▁clubs	-10877
▁restore	-10878
Tra	-10879
▁ft	-10880
▁WAR	-10881
owers	-10882
▁Tenn	-10883
▁reduces	-10884
▁incorporated	-10885
-200	-10886
▁Anth	-10887
▁ceiling	-10888
▁actively	-10889
▁Transport	-10890
,_	-10891
Ns	-10892
Box	-10893
▁Six	-10894
▁compe	-10895
▁floors	-10896
▁refers	-10897
▁Islamic	-10898
▁Everything	-10899
▁controlling	-10900
▁Scotland	-10901
▁struggling	-10902
-08	-10903
▁ML	-10904
commun	-10905
▁Jordan	-10906
▁Channel	-10907
▁exhibit	-10908
aret	-10909
ijuana	-10910
▁Apart	-10911
▁ultra	-10912
▁frustr	-10913
unicipal	-10914
description	-10915
▁accommodate	-10916
ez	-10917
▁Ast	-10918
▁Pict	-10919
▁bits	-10920
▁Analy	-10921
▁stayed	-10922
▁Columbia	-10923
▁Specific	-10924
(0	-10925
pa	-10926
geq	-10927
urer	-10928
▁adopt	-10929
▁carrier	-10930
▁expanding	-10931
\<	-10932
▁Pra	-10933
▁tile	-10934
▁filing	-10935
▁4:	-10936
▁hanging	-10937
▁tourist	-10938
DC	-10939
has	-10940
vec	-10941
▁ov	-10942
▁anth	-10943
▁elder	-10944
▁jewel	-10945
▁integral	-10946
▁instances	-10947
ols	-10948
▁(9	-10949
▁RT	-10950
▁Si	-10951
iger	-10952
uits	-10953
▁cig	-10954
aters	-10955
visor	-10956
▁lease	-10957
Version	-10958
▁stabil	-10959
▁possession	-10960
ivo	-10961
▁110	-10962
▁Typ	-10963
▁gel	-10964
▁grace	-10965
▁cabinet	-10966
▁emphasis	-10967
Ne	-10968
▁©	-10969
Rec	-10970
sized	-10971
▁Poly	-10972
▁hung	-10973
▁breaks	-10974
▁plates	-10975
Hz	-10976
▁DS	-10977
▁Gi	-10978
▁developments	-10979
dict	-10980
▁rou	-10981
▁Greg	-10982
output	-10983
▁Hawai	-10984
▁patch	-10985
▁racing	-10986
▁shapes	-10987
ibraries	-10988
▁fluores	-10989
▁utilize	-10990
▁Electric	-10991
vari	-10992
matic	-10993
olved	-10994
▁Change	-10995
▁Season	-10996
▁prolif	-10997
▁evident	-10998
▁FA	-10999
orem	-11000
pert	-11001
▁Sure	-11002
▁Medic	-11003
century	-11004
▁advertise	-11005
▁diagnosed	-11006
▁connecting	-11007
▁appreciated	-11008
doc	-11009
nell	-11010
▁Ice	-11011
▁Nothing	-11012
▁booking	-11013
▁attempted	-11014
Can	-11015
**]{},	-11016
makers	-11017
android	-11018
▁Collect	-11019
▁chemicals	-11020
occ	-11021
▁OP	-11022
aved	-11023
▁abroad	-11024
▁arrangement	-11025
▁characteristic	-11026
Pe	-11027
ASE	-11028
▁18.	-11029
▁drama	-11030
▁safely	-11031
▁advised	-11032
Yes	-11033
pot	-11034
acco	-11035
ository	-11036
▁Casino	-11037
▁Strateg	-11038
▁signing	-11039
bage	-11040
dney	-11041
irus	-11042
▁hun	-11043
isons	-11044
▁solely	-11045
▁graphic	-11046
ni	-11047
fall	-11048
▁2011.	-11049
▁Machine	-11050
▁chamber	-11051
del	-11052
imm	-11053
▁Tele	-11054
▁clip	-11055
▁horm	-11056
▁sink	-11057
▁mounted	-11058
▁conviction	-11059
▁plaintiffs	-11060
▁20%	-11061
▁Toy	-11062
media	-11063
▁stops	-11064
▁wider	-11065
▁dramatic	-11066
(&	-11067
▁62	-11068
▁infected	-11069
▁inventory	-11070
▁authorized	-11071
4/	-11072
({\	-11073
hist	-11074
▁Tech	-11075
▁tied	-11076
▁2011,	-11077
▁letting	-11078
plus	-11079
▁Sarah	-11080
ictions	-11081
iratory	-11082
▁exclus	-11083
▁sheets	-11084
oen	-11085
▁mattress	-11086
▁spa	-11087
ourse	-11088
▁Grow	-11089
urious	-11090
▁steady	-11091
▁thinks	-11092
▁10-	-11093
overs	-11094
interest	-11095
▁68	-11096
inite	-11097
icating	-11098
elve	-11099
leep	-11100
▁reserve	-11101
▁worried	-11102
SH	-11103
▁1](#	-11104
▁Self	-11105
▁Below	-11106
▁roots	-11107
▁nervous	-11108
▁batteries	-11109
▁Additional	-11110
-69	-11111
ACT	-11112
▁59	-11113
iami	-11114
otive	-11115
▁Lewis	-11116
▁Square	-11117
▁Besides	-11118
▁lawyers	-11119
▁rejected	-11120
▁DI	-11121
▁JS	-11122
asty	-11123
▁charity	-11124
▁confront	-11125
▁franchise	-11126
▁precisely	-11127
▁Yeah	-11128
▁vice	-11129
▁deleg	-11130
▁inquir	-11131
▁amongst	-11132
img	-11133
xml	-11134
▁Upon	-11135
▁Vegas	-11136
▁reply	-11137
▁Estate	-11138
▁shorter	-11139
▁adjusted	-11140
▁mathemat	-11141
▁"(	-11142
layout	-11143
inction	-11144
▁analyze	-11145
▁injection	-11146
agger	-11147
▁bold	-11148
▁knee	-11149
▁ensures	-11150
▁justify	-11151
Rep	-11152
▁1;	-11153
▁golden	-11154
▁Minnesota	-11155
uri	-11156
ishment	-11157
▁emotion	-11158
▁consolid	-11159
▁strengthen	-11160
▁possibilities	-11161
Well	-11162
▁-5*	-11163
Client	-11164
▁Update	-11165
pression	-11166
▁durable	-11167
▁singular	-11168
▁Amendment	-11169
▁prominent	-11170
▁infections	-11171
▁hal	-11172
▁Gree	-11173
▁Less	-11174
▁Nick	-11175
American	-11176
▁immigration	-11177
▁swit	-11178
▁penalty	-11179
help	-11180
wich	-11181
asted	-11182
▁Daily	-11183
▁brothers	-11184
NC	-11185
ureau	-11186
▁Kevin	-11187
▁duties	-11188
▁funded	-11189
++)	-11190
3).	-11191
ili	-11192
Button	-11193
▁timing	-11194
▁donation	-11195
▁artificial	-11196
▁celebration	-11197
▁proceedings	-11198
▁specialized	-11199
06	-11200
abeth	-11201
▁explos	-11202
▁answered	-11203
▁Ven	-11204
▁activated	-11205
▁63	-11206
▁AG	-11207
▁DR	-11208
▁li	-11209
▁Unit	-11210
▁Ocean	-11211
▁Turkey	-11212
▁differ	-11213
▁hiring	-11214
▁Stephen	-11215
▁Las	-11216
▁hol	-11217
uffer	-11218
▁votes	-11219
▁weigh	-11220
▁enthusi	-11221
URE	-11222
▁66	-11223
▁Sep	-11224
account	-11225
ierarch	-11226
▁highlights	-11227
void	-11228
▁anch	-11229
▁Motor	-11230
▁Story	-11231
▁weird	-11232
▁surely	-11233
▁executed	-11234
▁remarkable	-11235
▁anniversary	-11236
wer	-11237
▁HE	-11238
▁Ol	-11239
▁Norm	-11240
▁adhes	-11241
▁Awards	-11242
▁Indiana	-11243
Pr	-11244
▁Lem	-11245
▁Marc	-11246
▁batt	-11247
assion	-11248
▁Lloyds	-11249
▁verify	-11250
▁Working	-11251
▁Simplify	-11252
\"	-11253
▁Cou	-11254
▁Dom	-11255
frame	-11256
ishop	-11257
▁nose	-11258
▁rust	-11259
▁shirt	-11260
▁Unlike	-11261
▁scroll	-11262
▁struck	-11263
▁profits	-11264
▁abilities	-11265
▁offensive	-11266
▁Protection	-11267
▁agreements	-11268
▁curriculum	-11269
▁Dark	-11270
▁grey	-11271
▁Prince	-11272
▁spatial	-11273
kind	-11274
▁Five	-11275
season	-11276
▁Simply	-11277
▁calculate	-11278
▁paragraph	-11279
▁physicians	-11280
▁constraints	-11281
▁BL	-11282
result	-11283
▁Brian	-11284
▁coupled	-11285
▁migration	-11286
▁Kir	-11287
regon	-11288
rooms	-11289
▁Pers	-11290
▁cosm	-11291
▁rabb	-11292
ensing	-11293
▁conce	-11294
limited	-11295
▁timely	-11296
▁overview	-11297
▁happiness	-11298
▁pel	-11299
▁Prim	-11300
select	-11301
▁2010,	-11302
istance	-11303
▁Images	-11304
▁Products	-11305
▁presidential	-11306
12,	-11307
Mod	-11308
▁cyl	-11309
raine	-11310
▁yoga	-11311
inance	-11312
▁minds	-11313
▁Particip	-11314
oa	-11315
▁BB	-11316
exec	-11317
▁17,	-11318
▁Arm	-11319
necess	-11320
▁voted	-11321
▁combat	-11322
▁curves	-11323
▁hardly	-11324
▁retain	-11325
FE	-11326
ibl	-11327
zyme	-11328
▁22,	-11329
giving	-11330
▁Staff	-11331
▁propag	-11332
▁processor	-11333
▁classification	-11334
▁Az	-11335
▁span	-11336
▁Appro	-11337
▁modes	-11338
▁strip	-11339
▁wisdom	-11340
▁glucose	-11341
▁passage	-11342
▁variations	-11343
▁differently	-11344
▁spectacular	-11345
002	-11346
shot	-11347
▁athletes	-11348
▁SA	-11349
▁lawsu	-11350
▁campaigns	-11351
rices	-11352
▁dies	-11353
▁dupl	-11354
itudes	-11355
▁coaching	-11356
▁vulnerable	-11357
BP	-11358
udi	-11359
agra	-11360
fields	-11361
▁acids	-11362
service	-11363
▁pursue	-11364
▁23,	-11365
▁Bul	-11366
itzer	-11367
▁Fast	-11368
▁fruits	-11369
Instance	-11370
▁visitor	-11371
▁partially	-11372
▁therapeutic	-11373
mg	-11374
Fil	-11375
ashi	-11376
▁Could	-11377
▁Computer	-11378
▁pleasant	-11379
▁creativity	-11380
▁separation	-11381
UC	-11382
such	-11383
▁bub	-11384
irtual	-11385
reation	-11386
▁contrary	-11387
▁na	-11388
argin	-11389
ernel	-11390
mates	-11391
▁2008,	-11392
▁2010.	-11393
▁conform	-11394
ilitation	-11395
▁MR	-11396
▁enorm	-11397
▁Village	-11398
▁simultaneously	-11399
16.	-11400
Head	-11401
uals	-11402
stock	-11403
▁dipl	-11404
▁sevent	-11405
▁loading	-11406
▁Sciences	-11407
▁employers	-11408
▁surrounded	-11409
Book	-11410
cked	-11411
unct	-11412
▁Islam	-11413
▁writes	-11414
▁investing	-11415
▁workshops	-11416
ARD	-11417
▁***	-11418
▁Hur	-11419
▁Ont	-11420
▁cir	-11421
▁belt	-11422
▁electrode	-11423
1].	-11424
acon	-11425
▁20.	-11426
▁Film	-11427
▁manifest	-11428
▁Cond	-11429
utical	-11430
▁Cancer	-11431
▁trusted	-11432
▁disaster	-11433
boldsymbol	-11434
▁placement	-11435
▁accompanied	-11436
ricts	-11437
▁Plant	-11438
effective	-11439
▁pregnant	-11440
▁capability	-11441
▁constitutional	-11442
ONE	-11443
^2^	-11444
ften	-11445
▁Kit	-11446
▁NEW	-11447
atson	-11448
urches	-11449
orption	-11450
▁Content	-11451
▁venture	-11452
▁coloring	-11453
Sub	-11454
▁SQL	-11455
▁alarm	-11456
▁ratings	-11457
▁mortality	-11458
▁physically	-11459
▁bes	-11460
▁Much	-11461
▁cited	-11462
▁wiring	-11463
▁disrupt	-11464
iological	-11465
▁grateful	-11466
▁ministry	-11467
▁sleeping	-11468
▁collective	-11469
iva	-11470
▁-6	-11471
▁21,	-11472
▁Eliz	-11473
igious	-11474
market	-11475
▁Different	-11476
▁differential	-11477
▁universities	-11478
^−	-11479
allas	-11480
▁lady	-11481
▁Large	-11482
${	-11483
_{1}	-11484
▁pup	-11485
▁Rather	-11486
▁throws	-11487
▁varied	-11488
').	-11489
[12	-11490
▁BY	-11491
▁Jam	-11492
piece	-11493
▁Nature	-11494
▁presum	-11495
▁Article	-11496
▁Pakistan	-11497
▁mistakes	-11498
onut	-11499
▁Hello	-11500
▁pushed	-11501
▁beliefs	-11502
▁simulation	-11503
even	-11504
▁trem	-11505
▁Ident	-11506
▁habits	-11507
ribution	-11508
ws	-11509
zeta	-11510
▁wing	-11511
helial	-11512
▁earnings	-11513
▁specialists	-11514
UG	-11515
izers	-11516
▁moon	-11517
▁Guard	-11518
▁fulfill	-11519
▁situated	-11520
▁assignment	-11521
▁initiatives	-11522
▁discrimination	-11523
har	-11524
▁ng	-11525
▁0.2	-11526
▁28,	-11527
▁globe	-11528
▁sculpt	-11529
▁buttons	-11530
▁dispute	-11531
isticated	-11532
▁prescription	-11533
Os	-11534
▁07	-11535
▁Ka	-11536
▁Conc	-11537
▁gast	-11538
▁Afghan	-11539
▁Oregon	-11540
▁washing	-11541
▁Partners	-11542
▁competing	-11543
IND	-11544
▁cord	-11545
▁fract	-11546
▁Mother	-11547
▁Consult	-11548
▁Getting	-11549
▁islands	-11550
▁mapping	-11551
mith	-11552
▁192	-11553
omach	-11554
▁Front	-11555
▁recru	-11556
mercial	-11557
▁quotes	-11558
▁tagged	-11559
▁secured	-11560
▁acceptable	-11561
▁smartphone	-11562
Go	-11563
=1}	-11564
▁actor	-11565
▁gathered	-11566
▁operational	-11567
▁difficulties	-11568
GR	-11569
oir	-11570
▁PCR	-11571
click	-11572
owing	-11573
▁remem	-11574
▁actors	-11575
▁resistant	-11576
▁satellite	-11577
fish	-11578
pool	-11579
ryst	-11580
▁pic	-11581
valid	-11582
▁Nations	-11583
▁divorce	-11584
QU	-11585
boy	-11586
▁[2	-11587
orig	-11588
▁Tal	-11589
▁Body	-11590
▁walks	-11591
▁rolling	-11592
../../../../	-11593
ques	-11594
▁pip	-11595
▁Guys	-11596
▁aest	-11597
ifully	-11598
▁liber	-11599
▁cheaper	-11600
▁Economic	-11601
▁pursuant	-11602
▁precision	-11603
▁collections	-11604
bp	-11605
"})	-11606
▁76	-11607
▁Moore	-11608
▁brush	-11609
default	-11610
▁Victoria	-11611
ropri	-11612
▁biom	-11613
ritten	-11614
▁supra	-11615
▁vacuum	-11616
▁burning	-11617
▁trailer	-11618
▁resolved	-11619
▁attributes	-11620
▁Vi	-11621
nings	-11622
▁fake	-11623
▁Annual	-11624
▁Regist	-11625
▁homeown	-11626
▁experiencing	-11627
yer	-11628
▁towns	-11629
▁contam	-11630
▁receipt	-11631
▁exercises	-11632
▁Collection	-11633
IVE	-11634
▁GC	-11635
▁26,	-11636
▁2009,	-11637
▁toxic	-11638
▁stylish	-11639
▁comparable	-11640
:1	-11641
^+^	-11642
mia	-11643
seud	-11644
▁BBC	-11645
Label	-11646
▁Kenn	-11647
▁cultiv	-11648
▁operates	-11649
ounce	-11650
▁Easy	-11651
▁dict	-11652
▁seal	-11653
▁SW	-11654
party	-11655
rolog	-11656
server	-11657
▁parad	-11658
▁wheels	-11659
▁theories	-11660
▁generations	-11661
ра	-11662
▁Dur	-11663
micro	-11664
▁cust	-11665
▁Cover	-11666
atching	-11667
▁balanced	-11668
▁classified	-11669
nav	-11670
owed	-11671
▁loud	-11672
onomic	-11673
aration	-11674
▁Anderson	-11675
▁producer	-11676
▁participated	-11677
▁extraordinary	-11678
ATA	-11679
▁AI	-11680
fire	-11681
▁toy	-11682
iscons	-11683
▁Austin	-11684
▁aggressive	-11685
/8	-11686
don	-11687
▁ip	-11688
ername	-11689
▁Dream	-11690
sequently	-11691
▁Maryland	-11692
hh	-11693
▁ought	-11694
▁header	-11695
▁perception	-11696
▁medications	-11697
▁establishment	-11698
oute	-11699
uate	-11700
▁viral	-11701
▁copper	-11702
▁hearts	-11703
▁impression	-11704
DB	-11705
Ref	-11706
▁GN	-11707
▁Tan	-11708
event	-11709
▁Miami	-11710
▁trash	-11711
▁weapon	-11712
▁tension	-11713
▁arrangements	-11714
CLK	-11715
oxy	-11716
▁Ever	-11717
▁reveals	-11718
▁selecting	-11719
4).	-11720
png	-11721
ancies	-11722
▁tours	-11723
▁Sydney	-11724
▁voting	-11725
▁rounded	-11726
▁adoption	-11727
▁workplace	-11728
▁designated	-11729
▁manufactured	-11730
▁epit	-11731
▁Exchange	-11732
▁talented	-11733
)"	-11734
/-	-11735
ben	-11736
dated	-11737
ifact	-11738
▁gamb	-11739
▁chips	-11740
▁invite	-11741
▁excessive	-11742
uke	-11743
▁EL	-11744
▁Magn	-11745
▁myth	-11746
▁wrap	-11747
▁trace	-11748
▁entities	-11749
game	-11750
symb	-11751
false	-11752
ounge	-11753
▁Sams	-11754
▁prize	-11755
▁Member	-11756
▁implies	-11757
▁settled	-11758
▁Republicans	-11759
▁subscription	-11760
/10	-11761
▁Rs	-11762
drop	-11763
ching	-11764
▁Single	-11765
Override	-11766
▁protective	-11767
▁contractors	-11768
OH	-11769
ón	-11770
iah	-11771
nonumber	-11772
ete	-11773
Date	-11774
▁95%	-11775
▁Save	-11776
▁puzz	-11777
isconsin	-11778
▁fitting	-11779
▁momentum	-11780
▁generating	-11781
aus	-11782
umni	-11783
▁180	-11784
Resource	-11785
▁impacts	-11786
▁threats	-11787
▁wildlife	-11788
/6	-11789
src	-11790
ella	-11791
▁Host	-11792
▁sofa	-11793
▁Final	-11794
▁Sound	-11795
minimal	-11796
▁Temple	-11797
▁desper	-11798
▁preserve	-11799
▁publicly	-11800
▁financing	-11801
▁organisations	-11802
]"	-11803
ни	-11804
▁Dyn	-11805
▁enemy	-11806
▁mature	-11807
▁phrase	-11808
▁Seattle	-11809
▁shortly	-11810
▁reception	-11811
▁politicians	-11812
1],	-11813
▁67	-11814
▁Imp	-11815
▁terr	-11816
liminary	-11817
▁painted	-11818
▁Architect	-11819
▁narrative	-11820
MI	-11821
sys	-11822
▁Bad	-11823
▁grocer	-11824
▁synthesis	-11825
001){	-11826
lihood	-11827
▁Major	-11828
lectric	-11829
▁failing	-11830
▁polymer	-11831
▁pushing	-11832
▁sectors	-11833
▁References	-11834
^^	-11835
pg	-11836
===	-11837
▁gut	-11838
illance	-11839
▁comprises	-11840
▁appliances	-11841
▁conservative	-11842
2).	-11843
▁os	-11844
▁Excell	-11845
▁WordPress	-11846
ANG	-11847
Dis	-11848
}{2	-11849
rium	-11850
▁Hum	-11851
fonts	-11852
▁oldest	-11853
▁stocks	-11854
▁delivers	-11855
▁attribute	-11856
▁complications	-11857
End	-11858
ieve	-11859
odds	-11860
utory	-11861
▁Brad	-11862
▁suite	-11863
▁rescue	-11864
но	-11865
esity	-11866
▁garlic	-11867
▁networking	-11868
gence	-11869
▁surf	-11870
vation	-11871
▁Employ	-11872
▁Governor	-11873
▁ow	-11874
gate	-11875
▁Amb	-11876
▁Hay	-11877
▁authentic	-11878
▁navigation	-11879
1.0	-11880
[0]	-11881
▁AV	-11882
▁cav	-11883
backs	-11884
▁Jews	-11885
▁Vice	-11886
▁cush	-11887
▁Creek	-11888
▁Later	-11889
▁gauge	-11890
▁placing	-11891
▁designing	-11892
▁progression	-11893
▁overwhelming	-11894
ln	-11895
_2$	-11896
▁UV	-11897
▁~~	-11898
master	-11899
▁Index	-11900
▁protest	-11901
▁antibodies	-11902
hop	-11903
rin	-11904
ldots	-11905
▁thro	-11906
▁Innov	-11907
▁prediction	-11908
Ab	-11909
IAL	-11910
▁rows	-11911
ingham	-11912
ologic	-11913
▁steam	-11914
▁directors	-11915
▁reasonably	-11916
▁reliability	-11917
▁conservation	-11918
)))	-11919
oln	-11920
▁69	-11921
▁$1,	-11922
essee	-11923
layer	-11924
▁comply	-11925
▁equations	-11926
▁96	-11927
▁Fa	-11928
▁1970	-11929
▁inev	-11930
▁Winter	-11931
▁divide	-11932
▁shaped	-11933
▁Patrick	-11934
▁Hollywood	-11935
▁Resources	-11936
▁consisting	-11937
+1)	-11938
▁Gh	-11939
root	-11940
▁bedrooms	-11941
▁marijuana	-11942
▁acceptance	-11943
▁fascinating	-11944
▁transparent	-11945
4}	-11946
CON	-11947
aha	-11948
aning	-11949
▁Delhi	-11950
▁cataly	-11951
▁spoken	-11952
▁Available	-11953
▁basketball	-11954
▁separately	-11955
▁exclusively	-11956
▁entrepreneurs	-11957
hav	-11958
stop	-11959
▁paths	-11960
▁episodes	-11961
▁flooring	-11962
▁attorneys	-11963
lem	-11964
igence	-11965
▁gross	-11966
▁Perfect	-11967
copic	-11968
▁parks	-11969
project	-11970
▁cannab	-11971
▁Accordingly	-11972
BR	-11973
ACE	-11974
YPE	-11975
▁Ty	-11976
asses	-11977
ockey	-11978
otypes	-11979
▁Along	-11980
▁shelf	-11981
▁mixing	-11982
▁salary	-11983
▁Gallery	-11984
▁Indones	-11985
▁dominant	-11986
▁preference	-11987
▁announcement	-11988
▁conversations	-11989
▁в	-11990
Entry	-11991
▁mRNA	-11992
▁Applic	-11993
▁massage	-11994
▁supporters	-11995
▁allegations	-11996
▁independently	-11997
kit	-11998
▁Rog	-11999
Start	-12000
▁Band	-12001
values	-12002
▁apple	-12003
▁protecting	-12004
agan	-12005
▁Draw	-12006
▁html	-12007
▁pupp	-12008
▁Title	-12009
▁overl	-12010
▁reven	-12011
▁GA	-12012
achelor	-12013
▁edited	-12014
▁centuries	-12015
▁engineers	-12016
▁implications	-12017
▁1998	-12018
▁Rome	-12019
▁intu	-12020
▁irre	-12021
▁fiscal	-12022
▁routes	-12023
▁fragment	-12024
▁contractor	-12025
▁passionate	-12026
▁Environmental	-12027
anol	-12028
books	-12029
▁Tony	-12030
▁Trade	-12031
perform	-12032
ressing	-12033
▁heaven	-12034
▁Assembly	-12035
bus	-12036
▁Past	-12037
▁Stay	-12038
▁seam	-12039
▁flags	-12040
▁clinic	-12041
aceutical	-12042
▁aluminum	-12043
▁pathways	-12044
▁productive	-12045
PH	-12046
ANK	-12047
MAX	-12048
▁oh	-12049
call	-12050
phia	-12051
stic	-12052
activ	-12053
▁slee	-12054
Method	-12055
▁nerve	-12056
▁vitro	-12057
▁frozen	-12058
bec	-12059
▁EN	-12060
Wind	-12061
▁cha	-12062
▁tent	-12063
▁readily	-12064
▁thereof	-12065
▁Hamilton	-12066
▁thoroughly	-12067
OCK	-12068
▁swing	-12069
▁myster	-12070
LP	-12071
-05	-12072
-25	-12073
▁Diego	-12074
▁radius	-12075
▁Israeli	-12076
▁passengers	-12077
▁incorporate	-12078
━━	-12079
aga	-12080
▁IR	-12081
▁Tru	-12082
▁solo	-12083
ergies	-12084
▁crimes	-12085
▁marker	-12086
▁province	-12087
▁receiver	-12088
▁unnecess	-12089
▁defensive	-12090
=&	-12091
Am	-12092
LR	-12093
▁amen	-12094
▁beds	-12095
ockets	-12096
▁bearing	-12097
▁inclusion	-12098
ova	-12099
--[@	-12100
some	-12101
▁treating	-12102
▁influenced	-12103
ASH	-12104
cycl	-12105
▁Bab	-12106
▁vib	-12107
▁Jean	-12108
▁Chall	-12109
▁Liber	-12110
▁Rober	-12111
▁buyer	-12112
▁inher	-12113
▁stomach	-12114
documentclass	-12115
▁':	-12116
▁cater	-12117
▁Korean	-12118
▁affirm	-12119
▁agenda	-12120
▁ranked	-12121
ige	-12122
approx	-12123
Content	-12124
▁computing	-12125
AST	-12126
circ	-12127
erator	-12128
▁stere	-12129
▁indirect	-12130
▁Elizabeth	-12131
▁optimization	-12132
Cr	-12133
PG	-12134
Web	-12135
urred	-12136
▁asks	-12137
▁sour	-12138
▁Wales	-12139
▁tempt	-12140
▁Defense	-12141
▁terrible	-12142
▁Christians	-12143
TO	-12144
AAAA	-12145
▁iOS	-12146
erves	-12147
uated	-12148
▁Block	-12149
▁Kelly	-12150
entials	-12151
igs	-12152
unes	-12153
▁Obs	-12154
▁Own	-12155
▁adc	-12156
System	-12157
icates	-12158
▁drops	-12159
develop	-12160
ettings	-12161
▁Construction	-12162
"}.	-12163
null	-12164
aping	-12165
▁Kids	-12166
▁corruption	-12167
▁Mu	-12168
▁mock	-12169
ocytes	-12170
▁Kansas	-12171
▁indoor	-12172
▁disagree	-12173
▁receives	-12174
="#	-12175
▁Hey	-12176
▁cub	-12177
▁fired	-12178
▁liberal	-12179
▁corporation	-12180
-000	-12181
▁mad	-12182
▁encl	-12183
advant	-12184
▁tries	-12185
▁imposed	-12186
▁qualify	-12187
▁winners	-12188
▁gathering	-12189
▁orientation	-12190
▁sophisticated	-12191
ão	-12192
▁84	-12193
sche	-12194
▁branches	-12195
▁utilized	-12196
▁Wisconsin	-12197
▁occasions	-12198
END	-12199
▁ET	-12200
walk	-12201
▁Emb	-12202
rient	-12203
▁Must	-12204
▁divis	-12205
▁gains	-12206
▁boundaries	-12207
**,	-12208
15,	-12209
wid	-12210
IONS	-12211
rose	-12212
itarian	-12213
▁Double	-12214
▁Oxford	-12215
▁wishes	-12216
graduate	-12217
▁hopefully	-12218
Fe	-12219
▁Talk	-12220
orient	-12221
▁transp	-12222
▁Nevertheless	-12223
udd	-12224
Const	-12225
cycle	-12226
iller	-12227
▁snap	-12228
▁2008.	-12229
▁bonds	-12230
▁Malays	-12231
▁blocked	-12232
▁associate	-12233
▁emissions	-12234
▁attempting	-12235
▁WE	-12236
▁[[	-12237
▁locks	-12238
▁meters	-12239
▁reflects	-12240
▁neighbors	-12241
%),	-12242
▁Ig	-12243
▁cab	-12244
▁quad	-12245
▁Galaxy	-12246
quarters	-12247
▁cannabis	-12248
Are	-12249
▁Cool	-12250
▁gest	-12251
bourne	-12252
▁Dutch	-12253
▁audit	-12254
▁metric	-12255
▁tradem	-12256
adelphia	-12257
▁Atlanta	-12258
▁releases	-12259
▁Cambridge	-12260
▁algorithms	-12261
2/	-12262
▁HT	-12263
▁Nob	-12264
Number	-12265
owered	-12266
▁Contract	-12267
▁bankruptcy	-12268
▁compliment	-12269
▁1960	-12270
▁Hunt	-12271
▁Mess	-12272
assert	-12273
▁sorts	-12274
▁token	-12275
▁pollution	-12276
ARE	-12277
ogg	-12278
ometer	-12279
▁Repair	-12280
▁discharge	-12281
▁promising	-12282
▁reflection	-12283
las	-12284
vol	-12285
▁dirt	-12286
▁Pharm	-12287
▁chlor	-12288
itement	-12289
▁deserve	-12290
▁Recently	-12291
▁Constitution	-12292
erk	-12293
iel	-12294
▁CV	-12295
▁Youth	-12296
▁breach	-12297
▁deemed	-12298
▁refres	-12299
▁Solutions	-12300
Why	-12301
▁88	-12302
▁odds	-12303
▁Quick	-12304
▁Medicare	-12305
▁manually	-12306
▁ME	-12307
▁[3	-12308
▁Unt	-12309
break	-12310
▁Impro	-12311
▁singing	-12312
▁suscept	-12313
placement	-12314
▁HC	-12315
▁Graph	-12316
▁beaches	-12317
▁incorrect	-12318
▁psychological	-12319
vance	-12320
▁peer	-12321
▁armed	-12322
▁slots	-12323
mitting	-12324
▁cooked	-12325
▁barrier	-12326
▁violent	-12327
▁somebody	-12328
▁Experience	-12329
▁Parliament	-12330
oped	-12331
▁tang	-12332
erving	-12333
▁execute	-12334
▁impressed	-12335
▁reflected	-12336
▁implementing	-12337
DI	-12338
Cal	-12339
ysym	-12340
▁Bry	-12341
EVSYS	-12342
uction	-12343
▁tender	-12344
▁worship	-12345
▁Path	-12346
▁Compan	-12347
▁Dallas	-12348
▁exterior	-12349
▁ecosystem	-12350
▁prospective	-12351
6).	-12352
asi	-12353
flu	-12354
▁78	-12355
▁worn	-12356
▁Harry	-12357
▁hired	-12358
▁lasting	-12359
▁peripher	-12360
▁behaviors	-12361
▁horizontal	-12362
Pre	-12363
actic	-12364
center	-12365
▁Finance	-12366
▁gardens	-12367
▁heritage	-12368
▁competitors	-12369
ndry	-12370
▁twe	-12371
▁leak	-12372
▁1,000	-12373
▁annoy	-12374
▁podcast	-12375
................	-12376
11.	-12377
mbox	-12378
▁feas	-12379
▁hadn	-12380
▁soup	-12381
▁blame	-12382
control	-12383
▁fingers	-12384
▁confused	-12385
▁publishing	-12386
▁departments	-12387
▁occasionally	-12388
sex	-12389
▁\,	-12390
quer	-12391
▁Sho	-12392
oween	-12393
▁dozen	-12394
amsmath	-12395
▁troops	-12396
▁pharmac	-12397
▁73	-12398
angers	-12399
essert	-12400
▁arise	-12401
▁rated	-12402
▁Unless	-12403
▁phenomenon	-12404
▁encouraging	-12405
▁calculations	-12406
▁Rus	-12407
▁2020	-12408
▁Balt	-12409
▁stup	-12410
amssymb	-12411
▁deliber	-12412
LY	-12413
bsy	-12414
sor	-12415
▁74	-12416
offs	-12417
▁foam	-12418
▁intr	-12419
estone	-12420
amsfonts	-12421
▁printer	-12422
▁retired	-12423
ERV	-12424
▁glob	-12425
family	-12426
▁respiratory	-12427
opher	-12428
▁1999	-12429
mathrs	-12430
▁salad	-12431
▁Palestin	-12432
▁precious	-12433
▁Industrial	-12434
cr	-12435
hal	-12436
Spec	-12437
▁(4)	-12438
▁aqu	-12439
system	-12440
▁2009.	-12441
▁fitted	-12442
▁summar	-12443
mathrsfs	-12444
setlength	-12445
3;	-12446
-07	-12447
ika	-12448
ouri	-12449
greek	-12450
aments	-12451
amsbsy	-12452
orship	-12453
▁babies	-12454
Response	-12455
▁hunting	-12456
▁vibrant	-12457
▁streaming	-12458
▁complaints	-12459
xl	-12460
yal	-12461
▁carb	-12462
▁guns	-12463
▁Things	-12464
▁legacy	-12465
▁Methods	-12466
▁citizen	-12467
▁Memorial	-12468
▁regarded	-12469
▁templates	-12470
▁completing	-12471
▁restoration	-12472
▁inflammation	-12473
aire	-12474
▁Cash	-12475
▁medic	-12476
▁retro	-12477
▁slide	-12478
▁stamp	-12479
wasysym	-12480
▁speaks	-12481
▁tremend	-12482
▁enormous	-12483
▁customized	-12484
▁calculation	-12485
▁independence	-12486
je	-12487
_{1	-12488
▁1%	-12489
▁6-	-12490
omorph	-12491
upgreek	-12492
▁scoring	-12493
▁affecting	-12494
▁practition	-12495
([	-12496
▁98	-12497
vals	-12498
▁Lyn	-12499
▁cats	-12500
request	-12501
oddsidem	-12502
ovascular	-12503
▁extracted	-12504
▁governing	-12505
▁obligations	-12506
ORE	-12507
▁Ran	-12508
}{-69	-12509
▁Sant	-12510
▁THIS	-12511
▁patio	-12512
▁desert	-12513
▁incidence	-12514
ст	-12515
pres	-12516
adata	-12517
ulator	-12518
▁handy	-12519
▁remed	-12520
▁Islands	-12521
▁carries	-12522
▁symbols	-12523
▁ordering	-12524
▁promised	-12525
”)	-12526
ITE	-12527
▁Aw	-12528
olen	-12529
▁Bat	-12530
entry	-12531
▁Import	-12532
Controller	-12533
▁abundance	-12534
oddsidemargin	-12535
]]	-12536
-04	-12537
▁Eu	-12538
▁MC	-12539
apor	-12540
names	-12541
▁loads	-12542
▁synchron	-12543
▁finishing	-12544
▁individually	-12545
▁19.	-12546
Right	-12547
ighth	-12548
▁Iowa	-12549
▁pets	-12550
▁Death	-12551
▁Manufact	-12552
▁targeting	-12553
▁popularity	-12554
▁consecutive	-12555
▁77	-12556
▁Decor	-12557
▁comprising	-12558
▁Jay	-12559
▁Sab	-12560
▁FROM	-12561
▁meth	-12562
▁lemon	-12563
▁recur	-12564
▁defeat	-12565
▁fabulous	-12566
▁sampling	-12567
▁obligation	-12568
▁corporations	-12569
nom	-12570
ucks	-12571
▁gay	-12572
▁beef	-12573
▁innoc	-12574
2:	-12575
(0,	-12576
▁MO	-12577
avor	-12578
▁Hart	-12579
▁relate	-12580
▁Foreign	-12581
▁semicon	-12582
▁recommendation	-12583
green	-12584
▁Near	-12585
▁tags	-12586
▁acres	-12587
▁horses	-12588
▁prejud	-12589
▁tackle	-12590
▁agricultural	-12591
▁confidential	-12592
message	-12593
▁cohort	-12594
▁Nigeria	-12595
▁accomplished	-12596
pub	-12597
▁Abs	-12598
iates	-12599
▁Crit	-12600
▁unre	-12601
▁begun	-12602
▁crown	-12603
ogenesis	-12604
▁Industry	-12605
mn	-12606
sea	-12607
▁Dim	-12608
▁tar	-12609
guard	-12610
▁Pitt	-12611
Script	-12612
incoln	-12613
▁deadline	-12614
▁preventing	-12615
LA	-12616
tex	-12617
▁22.	-12618
▁Email	-12619
▁grain	-12620
display	-12621
▁notion	-12622
▁Question	-12623
▁producers	-12624
/9	-12625
:201	-12626
orse	-12627
▁Raj	-12628
▁incl	-12629
▁olive	-12630
▁shade	-12631
▁grants	-12632
▁columns	-12633
▁filters	-12634
▁particle	-12635
▁inflation	-12636
?!	-12637
▁04	-12638
▁SM	-12639
▁(12	-12640
▁Hun	-12641
▁len	-12642
▁amino	-12643
▁balls	-12644
,.	-12645
whe	-12646
▁TM	-12647
bial	-12648
rophy	-12649
▁Jason	-12650
▁rings	-12651
▁insect	-12652
▁physics	-12653
▁promises	-12654
bing	-12655
▁Mind	-12656
▁vine	-12657
▁fluct	-12658
▁analog	-12659
▁Ontario	-12660
Su	-12661
}/	-12662
▁rac	-12663
▁Crim	-12664
▁tower	-12665
▁coating	-12666
▁excluded	-12667
▁transplant	-12668
▁Philadelphia	-12669
▁alternatives	-12670
ال	-12671
▁Ban	-12672
▁Fab	-12673
▁Nag	-12674
▁bil	-12675
▁Gene	-12676
▁beings	-12677
▁achieving	-12678
▁obtaining	-12679
▁discipline	-12680
▁theoretical	-12681
conf	-12682
onda	-12683
quis	-12684
▁Nich	-12685
▁Marsh	-12686
▁vendors	-12687
▁purchases	-12688
:3	-12689
fi	-12690
lee	-12691
ioned	-12692
▁Burn	-12693
▁Pear	-12694
boards	-12695
▁Paper	-12696
▁specim	-12697
▁Vietnam	-12698
▁algebra	-12699
▁assuming	-12700
▁Discussion	-12701
▁~~~	-12702
gered	-12703
▁cinem	-12704
▁lying	-12705
▁eagles	-12706
▁hierarch	-12707
▁tutorial	-12708
▁interventions	-12709
**5	-12710
Sigma	-12711
▁Drag	-12712
▁Jenn	-12713
▁Wars	-12714
▁toilet	-12715
▁eastern	-12716
▁Condition	-12717
▁replacing	-12718
Char	-12719
▁Sri	-12720
▁Tree	-12721
▁ruled	-12722
▁mutant	-12723
▁washed	-12724
etheless	-12725
▁regards	-12726
▁progressive	-12727
bug	-12728
dec	-12729
fix	-12730
who	-12731
▁Inn	-12732
▁Dave	-12733
▁portions	-12734
Max	-12735
ULT	-12736
▁McG	-12737
▁sne	-12738
▁coinc	-12739
▁Harris	-12740
▁broker	-12741
▁Patients	-12742
▁Assistant	-12743
▁contacted	-12744
▁€	-12745
Let	-12746
uce	-12747
opes	-12748
rait	-12749
▁Opp	-12750
▁Prop	-12751
▁------	-12752
▁coding	-12753
▁namely	-12754
▁domains	-12755
▁solving	-12756
▁embedded	-12757
▁democratic	-12758
omal	-12759
▁cer	-12760
▁rhy	-12761
▁Golf	-12762
▁Ross	-12763
▁duct	-12764
incess	-12765
points	-12766
▁angry	-12767
▁settle	-12768
▁inspire	-12769
▁surveys	-12770
▁comparing	-12771
▁celebrated	-12772
EA	-12773
cf	-12774
▁Vit	-12775
rying	-12776
there	-12777
▁cyber	-12778
organisms	-12779
▁Authority	-12780
▁mutations	-12781
uv	-12782
▁Nut	-12783
▁Lady	-12784
▁buses	-12785
▁knife	-12786
▁wides	-12787
▁Retrie	-12788
▁genome	-12789
▁markers	-12790
▁spacious	-12791
={	-12792
/12	-12793
▁7*	-12794
bean	-12795
zens	-12796
▁Sov	-12797
▁lig	-12798
elson	-12799
▁flux	-12800
iotics	-12801
▁dried	-12802
▁probe	-12803
▁ships	-12804
olester	-12805
▁Samsung	-12806
▁Dead	-12807
linear	-12808
▁Terms	-12809
attering	-12810
gly	-12811
neum	-12812
▁nod	-12813
iotic	-12814
ounced	-12815
▁Pages	-12816
▁persu	-12817
factory	-12818
▁hitting	-12819
▁churches	-12820
▁elevated	-12821
▁accompany	-12822
▁disclosed	-12823
▁Manchester	-12824
▁preferences	-12825
:[	-12826
Fact	-12827
IGHT	-12828
best	-12829
ummy	-12830
izable	-12831
▁workout	-12832
▁instantly	-12833
▁passenger	-12834
css	-12835
cur	-12836
lah	-12837
▁\>	-12838
▁Tai	-12839
▁Josh	-12840
▁alike	-12841
▁semin	-12842
▁newest	-12843
▁Atlantic	-12844
▁weakness	-12845
sch	-12846
▁RA	-12847
roit	-12848
▁21.	-12849
▁Ele	-12850
**]{}	-12851
asting	-12852
▁Greece	-12853
▁subtle	-12854
▁multipl	-12855
▁suppose	-12856
07	-12857
▁Moh	-12858
graph	-12859
kappa	-12860
▁Tell	-12861
▁Regional	-12862
▁generous	-12863
▁referring	-12864
▁parliament	-12865
},\	-12866
▁$0.	-12867
▁exem	-12868
▁Books	-12869
▁barely	-12870
▁hazard	-12871
▁Located	-12872
▁realistic	-12873
La	-12874
-24	-12875
adi	-12876
Task	-12877
mind	-12878
▁27,	-12879
etics	-12880
▁dear	-12881
▁rack	-12882
▁governor	-12883
▁transformed	-12884
fox	-12885
▁09	-12886
▁arc	-12887
olesale	-12888
▁varying	-12889
▁graduated	-12890
▁legislative	-12891
zo	-12892
_{0	-12893
▁dialogue	-12894
▁keyboard	-12895
▁publications	-12896
PO	-12897
thal	-12898
▁Tel	-12899
ordon	-12900
▁unem	-12901
▁inherent	-12902
▁Alexander	-12903
▁installing	-12904
▁motivation	-12905
▁Hub	-12906
nabla	-12907
▁dash	-12908
▁penet	-12909
▁Fisher	-12910
▁Individ	-12911
Ste	-12912
▁BO	-12913
aunt	-12914
imon	-12915
▁Roy	-12916
▁seller	-12917
▁chairman	-12918
▁suspension	-12919
,,	-12920
▁06	-12921
▁Mir	-12922
▁jet	-12923
First	-12924
▁tire	-12925
▁disput	-12926
▁moisture	-12927
▁supplier	-12928
lls	-12929
Base	-12930
mart	-12931
▁Gas	-12932
▁races	-12933
▁Berlin	-12934
▁guided	-12935
▁jewelry	-12936
▁specify	-12937
▁stopping	-12938
▁regression	-12939
TD	-12940
wt	-12941
RANT	-12942
▁Bio	-12943
▁pdf	-12944
▁Trail	-12945
▁transcription	-12946
Off	-12947
oku	-12948
plan	-12949
▁25.	-12950
Width	-12951
▁arom	-12952
▁ward	-12953
status	-12954
▁Error	-12955
▁guides	-12956
▁vitamin	-12957
▁romantic	-12958
▁correction	-12959
▁destruction	-12960
Phi	-12961
▁#1	-12962
▁CM	-12963
next	-12964
show	-12965
▁115	-12966
▁Dise	-12967
▁Quant	-12968
▁magnet	-12969
▁Explore	-12970
▁essence	-12971
▁inspect	-12972
▁optional	-12973
▁peaceful	-12974
ologically	-12975
dig	-12976
\[[@	-12977
spring	-12978
uisine	-12979
▁Agric	-12980
▁blogs	-12981
▁flows	-12982
inition	-12983
▁Doctor	-12984
▁Future	-12985
▁advise	-12986
▁propri	-12987
▁assured	-12988
▁gravity	-12989
▁remodel	-12990
▁beautifully	-12991
tle	-12992
▁"#	-12993
▁08	-12994
▁79	-12995
idal	-12996
oder	-12997
▁Mit	-12998
▁Fish	-12999
▁oils	-13000
▁backed	-13001
▁methyl	-13002
▁thirty	-13003
ationally	-13004
▁consequence	-13005
PCR	-13006
bes	-13007
esy	-13008
Link	-13009
airy	-13010
rors	-13011
▁Les	-13012
▁ethnic	-13013
▁benefic	-13014
▁charging	-13015
▁declined	-13016
▁namespace	-13017
▁challenged	-13018
>\	-13019
BO	-13020
▁tablet	-13021
▁induction	-13022
▁accurately	-13023
▁inhibition	-13024
Ut	-13025
1).	-13026
isl	-13027
})$	-13028
azed	-13029
irds	-13030
oenix	-13031
osity	-13032
▁automated	-13033
▁disadvant	-13034
▁libraries	-13035
)*	-13036
ped	-13037
▁CPU	-13038
ugged	-13039
▁Hills	-13040
▁Related	-13041
▁Beautiful	-13042
▁containers	-13043
▁litigation	-13044
▁confirmation	-13045
▁establishing	-13046
white	-13047
▁Turk	-13048
▁greet	-13049
▁ancest	-13050
▁costly	-13051
▁diagnostic	-13052
1"	-13053
xe	-13054
▁Der	-13055
▁Nik	-13056
pread	-13057
ringe	-13058
▁mutual	-13059
▁regulated	-13060
▁legitimate	-13061
▁Performance	-13062
▁Mi	-13063
find	-13064
gets	-13065
gency	-13066
▁Kind	-13067
▁slic	-13068
▁Holid	-13069
▁Money	-13070
▁sensors	-13071
▁limitation	-13072
See	-13073
^2+	-13074
▁97	-13075
▁DJ	-13076
ango	-13077
uity	-13078
▁Lay	-13079
▁Cart	-13080
▁Value	-13081
▁texts	-13082
▁fundra	-13083
▁Revolution	-13084
=0.	-13085
]),	-13086
gov	-13087
Part	-13088
▁Dat	-13089
orious	-13090
▁Glass	-13091
▁twist	-13092
▁Complete	-13093
▁emission	-13094
▁mobility	-13095
▁breathing	-13096
▁adjustment	-13097
lon	-13098
▁61	-13099
▁tob	-13100
▁bron	-13101
▁ware	-13102
inally	-13103
▁tends	-13104
▁artwork	-13105
▁Clinical	-13106
md	-13107
▁db	-13108
ctic	-13109
olds	-13110
▁rod	-13111
Layout	-13112
▁Anton	-13113
▁Autom	-13114
▁Bring	-13115
▁beans	-13116
▁fence	-13117
▁Lincoln	-13118
▁bottles	-13119
▁handled	-13120
▁harmful	-13121
▁invested	-13122
▁continuously	-13123
▁straightforward	-13124
▁03	-13125
▁drove	-13126
Options	-13127
▁herein	-13128
▁credits	-13129
▁emerged	-13130
▁Determine	-13131
▁constitute	-13132
▁consulting	-13133
Pal	-13134
▁Han	-13135
▁Lane	-13136
▁keen	-13137
▁Denver	-13138
▁ranges	-13139
▁painful	-13140
underline	-13141
▁collecting	-13142
▁Championship	-13143
▁GM	-13144
atto	-13145
▁29,	-13146
essed	-13147
mouth	-13148
▁empower	-13149
▁powered	-13150
TE	-13151
ATH	-13152
}}_	-13153
▁gang	-13154
▁lobby	-13155
▁encoding	-13156
▁discounts	-13157
▁functioning	-13158
▁associations	-13159
pur	-13160
issa	-13161
addle	-13162
ingle	-13163
▁Eval	-13164
▁iPad	-13165
▁insu	-13166
▁makeup	-13167
▁receptors	-13168
1^	-13169
Dev	-13170
sin	-13171
▁AF	-13172
Init	-13173
▁Occ	-13174
▁Baby	-13175
Action	-13176
▁institutional	-13177
mont	-13178
wear	-13179
▁Belg	-13180
intend	-13181
▁trucks	-13182
▁adapted	-13183
▁curious	-13184
▁neighbour	-13185
▁TX	-13186
▁{}	-13187
arios	-13188
▁Jane	-13189
▁Move	-13190
▁bicy	-13191
▁drum	-13192
▁grad	-13193
▁grat	-13194
▁sake	-13195
▁toys	-13196
varphi	-13197
▁Saudi	-13198
▁mineral	-13199
▁obesity	-13200
▁HS	-13201
▁Lux	-13202
▁barg	-13203
xtures	-13204
▁seeks	-13205
▁dessert	-13206
▁endless	-13207
▁fastest	-13208
▁relaxing	-13209
▁preliminary	-13210
▁PE	-13211
_{2}	-13212
json	-13213
▁Too	-13214
scill	-13215
▁Mand	-13216
public	-13217
▁2007,	-13218
▁Peace	-13219
▁tract	-13220
▁reaches	-13221
▁magnitude	-13222
▁synthetic	-13223
▁Fif	-13224
▁Moon	-13225
▁anten	-13226
▁spare	-13227
fulness	-13228
8-	-13229
:**	-13230
ERR	-13231
dam	-13232
ema	-13233
std	-13234
▁87	-13235
▁PB	-13236
\]).	-13237
mate	-13238
▁Chen	-13239
▁Incre	-13240
▁Remove	-13241
▁trails	-13242
▁Magazine	-13243
▁subscrib	-13244
hou	-13245
▁Deep	-13246
▁Editor	-13247
▁Nether	-13248
▁enzyme	-13249
▁locate	-13250
▁enjoyable	-13251
"),	-13252
19.	-13253
ODE	-13254
two	-13255
▁92	-13256
isan	-13257
▁upset	-13258
▁impair	-13259
▁fiction	-13260
▁Tennessee	-13261
▁switching	-13262
на	-13263
)=\	-13264
mal	-13265
hard	-13266
▁alk	-13267
owned	-13268
▁Insp	-13269
▁Rick	-13270
▁acet	-13271
▁Morgan	-13272
▁transmit	-13273
▁unnecessary	-13274
▁»	-13275
CIT	-13276
OSE	-13277
▁Size	-13278
▁crop	-13279
▁proc	-13280
apters	-13281
▁paste	-13282
▁Parent	-13283
▁Edition	-13284
▁Planning	-13285
▁infinity	-13286
▁metabolism	-13287
▁surveillance	-13288
▁Lic	-13289
▁mesh	-13290
▁sits	-13291
ureauc	-13292
▁attendance	-13293
JS	-13294
pin	-13295
▁ma	-13296
▁Sud	-13297
ocate	-13298
▁spir	-13299
gative	-13300
▁squad	-13301
▁Reading	-13302
▁catalog	-13303
▁insulin	-13304
▁occurring	-13305
▁GO	-13306
import	-13307
▁nurse	-13308
security	-13309
▁Theorem	-13310
▁inhibit	-13311
▁volumes	-13312
▁Advanced	-13313
▁commands	-13314
▁efficacy	-13315
RO	-13316
▁ns	-13317
arse	-13318
▁GPS	-13319
▁Ott	-13320
▁REG	-13321
oline	-13322
opath	-13323
direct	-13324
▁Making	-13325
▁plugin	-13326
▁ignored	-13327
▁landing	-13328
▁retailers	-13329
otta	-13330
poly	-13331
ontin	-13332
▁panc	-13333
olitan	-13334
▁pizza	-13335
attered	-13336
viously	-13337
▁Classic	-13338
▁travelling	-13339
ORD	-13340
idate	-13341
rings	-13342
▁Laur	-13343
▁suicide	-13344
▁followers	-13345
▁perceived	-13346
▁proliferation	-13347
(*	-13348
fly	-13349
tech	-13350
doors	-13351
comment	-13352
▁relaxed	-13353
ographical	-13354
▁excitement	-13355
▁participant	-13356
atrix	-13357
▁Pick	-13358
▁tong	-13359
▁Break	-13360
▁aging	-13361
▁login	-13362
▁reset	-13363
▁annually	-13364
▁substances	-13365
]^.	-13366
safe	-13367
uming	-13368
vised	-13369
▁poetry	-13370
▁trauma	-13371
▁Theatre	-13372
▁defects	-13373
▁glasses	-13374
▁reserves	-13375
▁stakeholders	-13376
zym	-13377
▁94	-13378
▁\*	-13379
bling	-13380
▁bass	-13381
▁jail	-13382
▁Month	-13383
▁inhab	-13384
▁royal	-13385
▁lateral	-13386
▁Creative	-13387
▁wherever	-13388
▁relaxation	-13389
▁contributing	-13390
Pol	-13391
▁CP	-13392
▁Sac	-13393
]--[@	-13394
▁Diam	-13395
umbing	-13396
▁fancy	-13397
▁appell	-13398
▁calcium	-13399
▁influen	-13400
▁gradually	-13401
▁addressing	-13402
arer	-13403
uler	-13404
▁30-	-13405
▁Yam	-13406
▁cod	-13407
00000	-13408
▁bust	-13409
▁skip	-13410
▁Anthony	-13411
▁anybody	-13412
▁coconut	-13413
▁elderly	-13414
▁claiming	-13415
"]	-13416
9-	-13417
00,	-13418
eals	-13419
▁sli	-13420
▁Cape	-13421
roduct	-13422
▁Quest	-13423
▁Speed	-13424
▁hypert	-13425
▁Between	-13426
▁courage	-13427
▁convinced	-13428
▁compassion	-13429
$)	-13430
és	-13431
▁86	-13432
ellar	-13433
▁Navy	-13434
▁lawn	-13435
▁dense	-13436
▁suits	-13437
endants	-13438
▁comedy	-13439
▁gently	-13440
▁speeds	-13441
▁discussing	-13442
▁notification	-13443
urd	-13444
▁Advent	-13445
▁Posted	-13446
▁suited	-13447
▁couples	-13448
▁enabling	-13449
▁overseas	-13450
▁segments	-13451
▁confusion	-13452
▁privilege	-13453
phy	-13454
ader	-13455
▁(2.	-13456
▁000	-13457
▁ende	-13458
▁forg	-13459
iaries	-13460
▁triple	-13461
▁reconst	-13462
▁Alliance	-13463
▁Register	-13464
▁striking	-13465
▁Administr	-13466
▁excellence	-13467
18.	-13468
^{-	-13469
good	-13470
▁1.0	-13471
about	-13472
istence	-13473
▁prints	-13474
▁WARRANT	-13475
tag	-13476
oxic	-13477
▁doct	-13478
▁Compar	-13479
▁nicely	-13480
III	-13481
▁130	-13482
▁dated	-13483
▁tweet	-13484
▁Always	-13485
▁Cooper	-13486
▁shadow	-13487
▁thrown	-13488
▁shipped	-13489
▁Missouri	-13490
▁attractions	-13491
▁technological	-13492
▁fel	-13493
▁ore	-13494
ceive	-13495
arency	-13496
▁Bureau	-13497
▁metast	-13498
▁Interior	-13499
▁Whatever	-13500
▁floating	-13501
▁Southeast	-13502
▁consensus	-13503
/11	-13504
olk	-13505
▁10:	-13506
winning	-13507
▁Visual	-13508
▁cookie	-13509
▁nobody	-13510
▁Success	-13511
▁coaches	-13512
uku	-13513
▁05	-13514
▁Alb	-13515
▁Ark	-13516
speed	-13517
▁Maint	-13518
▁boots	-13519
▁eigen	-13520
▁kidney	-13521
ensively	-13522
▁logical	-13523
▁abandoned	-13524
▁configured	-13525
▁extraction	-13526
▁documentary	-13527
si	-13528
7).	-13529
gged	-13530
gins	-13531
▁12:	-13532
▁Aqu	-13533
▁Sym	-13534
riven	-13535
▁Side	-13536
▁shoe	-13537
ousing	-13538
report	-13539
▁Andre	-13540
▁Often	-13541
▁liable	-13542
velength	-13543
▁describing	-13544
▁presenting	-13545
▁conditioning	-13546
▁LD	-13547
▁Ub	-13548
rell	-13549
bionic	-13550
strong	-13551
▁sixth	-13552
▁Really	-13553
▁fallen	-13554
▁champion	-13555
▁prevalence	-13556
▁threatened	-13557
Rem	-13558
oat	-13559
▁mos	-13560
▁Alab	-13561
▁coupon	-13562
▁incons	-13563
fortable	-13564
▁basement	-13565
▁widespread	-13566
}_\	-13567
▁VA	-13568
ikip	-13569
▁Mix	-13570
▁Imag	-13571
▁gray	-13572
▁lands	-13573
▁Simple	-13574
▁yields	-13575
▁permits	-13576
▁judicial	-13577
:(	-13578
uj	-13579
acles	-13580
▁Nice	-13581
▁anger	-13582
▁eager	-13583
▁nurses	-13584
▁denomin	-13585
▁accidents	-13586
▁districts	-13587
▁repeatedly	-13588
bx	-13589
Per	-13590
}}{	-13591
▁UI	-13592
anny	-13593
burn	-13594
oche	-13595
phan	-13596
▁Rab	-13597
▁fur	-13598
002){	-13599
▁yeah	-13600
inters	-13601
▁Sport	-13602
ascript	-13603
▁carcin	-13604
▁caring	-13605
▁lawsuit	-13606
▁Scottish	-13607
▁recovered	-13608
▁sustained	-13609
▁consultant	-13610
GG	-13611
▁83	-13612
oving	-13613
vable	-13614
▁dock	-13615
formed	-13616
rolled	-13617
▁batch	-13618
▁locked	-13619
^4	-13620
akh	-13621
▁Job	-13622
imore	-13623
▁Forum	-13624
▁Mayor	-13625
▁google	-13626
irection	-13627
olesterol	-13628
▁navigate	-13629
▁disclosure	-13630
▁electronics	-13631
⁄2	-13632
-13	-13633
nie	-13634
acer	-13635
▁23.	-13636
▁outs	-13637
▁coron	-13638
▁figured	-13639
▁Equipment	-13640
▁downloaded	-13641
▁recruitment	-13642
Now	-13643
Param	-13644
liance	-13645
▁elite	-13646
▁tears	-13647
▁artistic	-13648
▁versatile	-13649
▁submission	-13650
/.	-13651
iaz	-13652
apes	-13653
▁Gab	-13654
liest	-13655
ouble	-13656
▁nuts	-13657
▁Maine	-13658
▁dough	-13659
▁sized	-13660
▁Phoenix	-13661
▁suspended	-13662
▁assumption	-13663
heart	-13664
▁Feel	-13665
▁brack	-13666
options	-13667
▁Castle	-13668
▁cycles	-13669
▁extrem	-13670
▁highlighted	-13671
oro	-13672
xit	-13673
▁ic	-13674
ello	-13675
▁112	-13676
▁Hal	-13677
ocial	-13678
▁ties	-13679
▁capac	-13680
▁Anyone	-13681
▁trains	-13682
▁affairs	-13683
avascript	-13684
▁Football	-13685
▁organize	-13686
▁extending	-13687
▁investigations	-13688
▁-7	-13689
ptic	-13690
▁thy	-13691
▁hike	-13692
▁Activ	-13693
▁shore	-13694
igenous	-13695
▁Course	-13696
▁unlock	-13697
▁Appeals	-13698
▁arising	-13699
avy	-13700
hill	-13701
ected	-13702
ushes	-13703
▁ears	-13704
▁twin	-13705
filter	-13706
▁Intel	-13707
▁rocks	-13708
▁magical	-13709
▁isolation	-13710
▁embodiment	-13711
iro	-13712
vir	-13713
▁Ped	-13714
▁Laure	-13715
▁Portug	-13716
▁superb	-13717
▁contrad	-13718
▁premises	-13719
▁staining	-13720
▁Appellant	-13721
▁statutory	-13722
:\	-13723
IX	-13724
;">	-13725
▁slip	-13726
▁2019,	-13727
▁formats	-13728
▁matched	-13729
▁Document	-13730
▁calories	-13731
▁engineer	-13732
▁qualities	-13733
▁anticipated	-13734
▁modification	-13735
▁personalized	-13736
Ext	-13737
yll	-13738
ante	-13739
▁Whit	-13740
prises	-13741
▁municipal	-13742
▁witnesses	-13743
▁conclusions	-13744
▁consistency	-13745
16,	-13746
Mon	-13747
[1]	-13748
Create	-13749
Result	-13750
▁Conserv	-13751
▁ethical	-13752
▁rebuild	-13753
▁unclear	-13754
▁troubles	-13755
_1$	-13756
cha	-13757
mus	-13758
bled	-13759
▁11:	-13760
otrop	-13761
Lambda	-13762
▁Allen	-13763
▁pulse	-13764
▁vinyl	-13765
Process	-13766
▁Marine	-13767
▁freely	-13768
▁strings	-13769
▁Chairman	-13770
▁clusters	-13771
▁Halloween	-13772
▁documented	-13773
▁specifications	-13774
▁TB	-13775
▁amp	-13776
▁Sweden	-13777
▁wrapped	-13778
▁Together	-13779
▁expecting	-13780
▁exploration	-13781
rh	-13782
-1]	-13783
gun	-13784
zan	-13785
▁Ow	-13786
Page	-13787
will	-13788
ioxid	-13789
▁Gulf	-13790
▁Pier	-13791
fected	-13792
conduct	-13793
▁delayed	-13794
▁existed	-13795
▁restored	-13796
▁recipient	-13797
▁counterpart	-13798
mad	-13799
▁upt	-13800
▁cancel	-13801
▁strive	-13802
ceptions	-13803
itations	-13804
▁Ukraine	-13805
▁veteran	-13806
▁offerings	-13807
▁sponsored	-13808
WD	-13809
bul	-13810
▁DIS	-13811
▁McK	-13812
▁uint	-13813
lahoma	-13814
▁judges	-13815
▁prescribed	-13816
▁semiconductor	-13817
ORG	-13818
▁82	-13819
▁Cu	-13820
▁fax	-13821
▁fut	-13822
▁Song	-13823
▁fool	-13824
apolis	-13825
iative	-13826
ishers	-13827
install	-13828
▁Taking	-13829
▁silent	-13830
▁Writing	-13831
▁retreat	-13832
▁Independent	-13833
▁Netherlands	-13834
▁0000	-13835
▁Drug	-13836
▁Furn	-13837
▁steep	-13838
▁auction	-13839
▁Location	-13840
▁listings	-13841
OVE	-13842
bas	-13843
▁Wy	-13844
▁Adams	-13845
▁Schools	-13846
▁Multiple	-13847
▁coupling	-13848
▁alignment	-13849
NF	-13850
▁NJ	-13851
▁24.	-13852
▁Cos	-13853
▁IBM	-13854
▁rush	-13855
images	-13856
▁Sorry	-13857
▁Client	-13858
▁scales	-13859
▁Mexican	-13860
▁Reserve	-13861
▁fantasy	-13862
ochemical	-13863
▁barriers	-13864
▁humanity	-13865
▁motivated	-13866
▁agriculture	-13867
▁illustrated	-13868
▁lightweight	-13869
▁photographer	-13870
iac	-13871
▁6:	-13872
oria	-13873
▁Fle	-13874
mental	-13875
▁dozens	-13876
itzerland	-13877
▁throwing	-13878
▁inhibitor	-13879
yt	-13880
sql	-13881
via	-13882
▁})	-13883
arms	-13884
agnetic	-13885
▁singer	-13886
▁criticism	-13887
▁newsletter	-13888
то	-13889
▁MB	-13890
▁190	-13891
▁Mort	-13892
▁mamm	-13893
▁desirable	-13894
\;	-13895
ere	-13896
oda	-13897
Team	-13898
ipper	-13899
▁brick	-13900
▁ridic	-13901
▁enjoys	-13902
positive	-13903
▁Affairs	-13904
▁gambling	-13905
▁hypothesis	-13906
▁entertaining	-13907
ер	-13908
ACH	-13909
▁LE	-13910
dale	-13911
▁cure	-13912
▁welf	-13913
▁Phill	-13914
istical	-13915
leading	-13916
▁Argent	-13917
▁expend	-13918
▁outfit	-13919
▁closure	-13920
▁amenities	-13921
▁dependence	-13922
▁negotiations	-13923
▁к	-13924
pop	-13925
▁PT	-13926
kers	-13927
ergic	-13928
▁iter	-13929
▁Begin	-13930
▁Cabin	-13931
▁prest	-13932
▁bother	-13933
▁rounds	-13934
▁broader	-13935
▁labeled	-13936
▁scratch	-13937
▁systematic	-13938
▁presentations	-13939
aug	-13940
"}),	-13941
▁Mini	-13942
▁ultr	-13943
health	-13944
▁fatal	-13945
▁Notice	-13946
▁alumni	-13947
▁marine	-13948
▁utilizing	-13949
▁conducting	-13950
▁decreasing	-13951
▁infectious	-13952
▁dramatically	-13953
▁knowledgeable	-13954
}.	-13955
00.	-13956
sign	-13957
▁===	-13958
▁Kan	-13959
▁Leon	-13960
▁priced	-13961
▁welfare	-13962
▁Practice	-13963
▁phosphory	-13964
▁Throughout	-13965
▁Organization	-13966
NET	-13967
▁RO	-13968
lies	-13969
olas	-13970
▁gam	-13971
▁spo	-13972
ensor	-13973
mented	-13974
rowave	-13975
▁stays	-13976
riction	-13977
▁Detroit	-13978
▁pulling	-13979
▁inspiring	-13980
dl	-13981
dog	-13982
▁89	-13983
ocur	-13984
role	-13985
▁Movie	-13986
instein	-13987
▁viruses	-13988
▁minority	-13989
▁occupied	-13990
▁validation	-13991
Min	-13992
may	-13993
▁Ec	-13994
Tree	-13995
eron	-13996
▁2.0	-13997
▁Had	-13998
▁Kal	-13999
▁Cann	-14000
▁Rent	-14001
▁Simon	-14002
herence	-14003
▁devoted	-14004
▁achievement	-14005
▁unfortunately	-14006
jpg	-14007
▁5:	-14008
▁WW	-14009
jack	-14010
rule	-14011
▁FBI	-14012
lated	-14013
▁wage	-14014
▁Liter	-14015
▁taxpay	-14016
▁evolved	-14017
▁Relations	-14018
▁bacterial	-14019
▁Plaintiffs	-14020
▁correlated	-14021
▁intelligent	-14022
▁statistically	-14023
▁differentiation	-14024
tab	-14025
▁RF	-14026
mole	-14027
otte	-14028
▁Bag	-14029
▁para	-14030
etooth	-14031
▁Solar	-14032
▁Queens	-14033
▁absent	-14034
▁makers	-14035
▁declare	-14036
▁hydrogen	-14037
▁minimize	-14038
▁Melbourne	-14039
▁attachment	-14040
▁accordingly	-14041
nc	-14042
axis	-14043
held	-14044
depth	-14045
ulent	-14046
▁vivo	-14047
number	-14048
▁Better	-14049
▁iconic	-14050
▁oscill	-14051
▁surviv	-14052
▁Mississ	-14053
▁abnormal	-14054
▁demanding	-14055
▁predictions	-14056
▁intermediate	-14057
1:	-14058
mL	-14059
▁Jen	-14060
▁Pas	-14061
▁medi	-14062
▁Fresh	-14063
estinal	-14064
▁perpet	-14065
▁coordinates	-14066
6){	-14067
▁SL	-14068
ppat	-14069
Cache	-14070
ouver	-14071
split	-14072
regular	-14073
▁stupid	-14074
▁grocery	-14075
▁arbitrary	-14076
▁explicitly	-14077
▁imagination	-14078
)**	-14079
addy	-14080
▁Lie	-14081
bottom	-14082
working	-14083
▁facial	-14084
▁mystery	-14085
▁suppress	-14086
▁nutrients	-14087
▁distinguish	-14088
▁и	-14089
▁о	-14090
SQL	-14091
Last	-14092
▁Gil	-14093
▁PhD	-14094
▁turb	-14095
▁dimin	-14096
▁maker	-14097
etition	-14098
ournals	-14099
▁laundry	-14100
▁countless	-14101
▁transmitted	-14102
▁constitution	-14103
64]	-14104
▁CBD	-14105
uther	-14106
▁dont	-14107
common	-14108
ickets	-14109
▁Floor	-14110
▁couch	-14111
▁Edward	-14112
▁Native	-14113
▁heated	-14114
▁females	-14115
▁flavors	-14116
▁theatre	-14117
atar	-14118
antry	-14119
asive	-14120
▁hack	-14121
▁lamp	-14122
▁Veter	-14123
▁clause	-14124
▁reporter	-14125
▁strictly	-14126
▁Technical	-14127
_.	-14128
▁SK	-14129
▁WT	-14130
▁350	-14131
▁fet	-14132
Local	-14133
icker	-14134
forced	-14135
▁Until	-14136
▁Orange	-14137
▁titled	-14138
▁substitute	-14139
-0.	-14140
cule	-14141
▁(15	-14142
▁30%	-14143
▁COU	-14144
▁FDA	-14145
▁Nev	-14146
▁Stop	-14147
▁neutr	-14148
▁Premier	-14149
▁handles	-14150
▁disappointed	-14151
?)	-14152
▁(17	-14153
▁Bor	-14154
ritis	-14155
▁straw	-14156
▁shield	-14157
▁combines	-14158
▁¶	-14159
-1}	-14160
▁888	-14161
▁Hug	-14162
▁lap	-14163
imity	-14164
▁Answ	-14165
▁Gran	-14166
▁Mars	-14167
▁bite	-14168
▁bases	-14169
▁cruise	-14170
▁metall	-14171
▁embrace	-14172
▁scenarios	-14173
▁demonstrates	-14174
Yeah	-14175
▁Lam	-14176
▁Sha	-14177
never	-14178
▁oste	-14179
utives	-14180
▁irrit	-14181
▁Assess	-14182
▁castle	-14183
▁chains	-14184
▁holder	-14185
▁Oklahoma	-14186
▁tailored	-14187
generation	-14188
▁dismissed	-14189
▁integrate	-14190
▁nationwide	-14191
▁β	-14192
keys	-14193
▁Mun	-14194
▁boats	-14195
▁piano	-14196
▁tiles	-14197
▁Soviet	-14198
▁racial	-14199
▁Olympic	-14200
▁handful	-14201
▁incubated	-14202
▁varieties	-14203
▁compromise	-14204
################	-14205
ti	-14206
▁Pu	-14207
▁Cher	-14208
▁Snow	-14209
subset	-14210
▁hiking	-14211
▁phases	-14212
▁stolen	-14213
▁warned	-14214
appropri	-14215
▁Daniels	-14216
▁corners	-14217
▁accepting	-14218
▁indication	-14219
▁introducing	-14220
▁ABC	-14221
▁males	-14222
▁Target	-14223
▁divers	-14224
▁coastal	-14225
▁habitat	-14226
▁enrolled	-14227
▁tourists	-14228
▁Louisiana	-14229
▁paintings	-14230
▁convention	-14231
▁suggestion	-14232
▁uncertainty	-14233
▁NA	-14234
▁PH	-14235
idel	-14236
▁Bol	-14237
▁dos	-14238
▁Send	-14239
▁bene	-14240
▁lean	-14241
ailand	-14242
ighters	-14243
▁twelve	-14244
▁immunity	-14245
▁limiting	-14246
▁convicted	-14247
▁distinction	-14248
▁administered	-14249
eda	-14250
uru	-14251
hole	-14252
ocard	-14253
ucker	-14254
▁Okay	-14255
▁comic	-14256
▁pixels	-14257
▁insured	-14258
▁invasion	-14259
▁indicator	-14260
▁acknowledged	-14261
▁Hu	-14262
they	-14263
▁Ale	-14264
athon	-14265
▁cups	-14266
▁quit	-14267
▁toss	-14268
▁rival	-14269
▁Alabama	-14270
▁highway	-14271
▁tobacco	-14272
Bo	-14273
lan	-14274
infl	-14275
oric	-14276
▁(11	-14277
▁Nep	-14278
▁0.05	-14279
▁tear	-14280
associ	-14281
umbers	-14282
▁2007.	-14283
▁Blood	-14284
▁epidem	-14285
▁shelter	-14286
▁decreases	-14287
▁proposals	-14288
▁similarly	-14289
ohn	-14290
▁rh	-14291
ando	-14292
beat	-14293
▁Gib	-14294
veland	-14295
▁dynam	-14296
▁escap	-14297
Command	-14298
▁neural	-14299
▁scream	-14300
▁tennis	-14301
▁corrupt	-14302
▁vessels	-14303
▁circular	-14304
▁interrupt	-14305
▁considerably	-14306
▁93	-14307
ktop	-14308
▁bol	-14309
▁vig	-14310
success	-14311
▁remedy	-14312
▁crossing	-14313
▁allegedly	-14314
▁animation	-14315
▁combining	-14316
▁prospects	-14317
▁respondents	-14318
^2\	-14319
Just	-14320
▁lam	-14321
equiv	-14322
urers	-14323
context	-14324
▁Highway	-14325
▁belongs	-14326
▁queries	-14327
blem	-14328
fill	-14329
▁ISO	-14330
▁deny	-14331
▁Survey	-14332
▁Harvard	-14333
▁portray	-14334
▁verdict	-14335
1%	-14336
May	-14337
mode	-14338
town	-14339
ILITY	-14340
▁nail	-14341
▁diver	-14342
▁yeast	-14343
▁soccer	-14344
▁collapse	-14345
▁conflicts	-14346
▁expressing	-14347
▁Afghanistan	-14348
NO	-14349
ARY	-14350
MENT	-14351
inar	-14352
omas	-14353
▁0.4	-14354
▁GNU	-14355
▁Hom	-14356
rated	-14357
▁2](#	-14358
▁flaw	-14359
▁junior	-14360
▁viable	-14361
▁pending	-14362
▁dressing	-14363
▁pipeline	-14364
▁analytics	-14365
▁distribute	-14366
▁responsive	-14367
▁satisfying	-14368
▁additionally	-14369
-30	-14370
opp	-14371
▁brew	-14372
▁Maria	-14373
▁grows	-14374
▁propose	-14375
▁modeling	-14376
▁protocols	-14377
▁meditation	-14378
▁quantities	-14379
▁wavelength	-14380
▁Switzerland	-14381
(3)	-14382
emic	-14383
▁Bron	-14384
▁Others	-14385
▁poison	-14386
▁Culture	-14387
▁partition	-14388
▁underground	-14389
▁accumulation	-14390
["	-14391
Mar	-14392
▁>=	-14393
Call	-14394
^{2}	-14395
olph	-14396
ivals	-14397
▁Active	-14398
▁lenses	-14399
▁chromos	-14400
▁legally	-14401
▁TC	-14402
tein	-14403
▁sons	-14404
▁Claim	-14405
▁dying	-14406
▁ladies	-14407
▁poster	-14408
▁Restaur	-14409
▁Retrieved	-14410
▁attributed	-14411
▁violations	-14412
SR	-14413
INF	-14414
▁Sad	-14415
▁dip	-14416
▁gig	-14417
Equal	-14418
▁Gordon	-14419
▁circles	-14420
▁garbage	-14421
▁prolong	-14422
▁viewers	-14423
▁forgotten	-14424
▁numerical	-14425
▁quantitative	-14426
6/	-14427
arma	-14428
▁Hop	-14429
isure	-14430
▁Nurs	-14431
▁inequ	-14432
▁canvas	-14433
▁handed	-14434
▁tourism	-14435
▁immigrants	-14436
0.4	-14437
Eng	-14438
bet	-14439
asury	-14440
▁Nort	-14441
▁clim	-14442
▁apolog	-14443
▁socket	-14444
entially	-14445
▁traditions	-14446
▁assessments	-14447
▁inflammatory	-14448
>(	-14449
▁Ze	-14450
▁arth	-14451
matrix	-14452
models	-14453
Builder	-14454
▁kernel	-14455
▁deciding	-14456
▁distract	-14457
▁promoted	-14458
▁donations	-14459
▁appreciation	-14460
▁bp	-14461
000,	-14462
▁Cow	-14463
▁Sek	-14464
▁cant	-14465
▁heal	-14466
▁camps	-14467
▁intrig	-14468
mediated	-14469
▁Century	-14470
▁Wedding	-14471
▁beneath	-14472
▁bureauc	-14473
▁geometry	-14474
▁Companies	-14475
▁mainstream	-14476
3/	-14477
psy	-14478
Load	-14479
▁Eve	-14480
▁Rid	-14481
▁rit	-14482
erals	-14483
stairs	-14484
▁Write	-14485
▁boolean	-14486
▁explored	-14487
▁survived	-14488
▁Otherwise	-14489
▁workforce	-14490
▁PHP	-14491
▁paras	-14492
▁robot	-14493
▁tasty	-14494
▁bundle	-14495
▁portal	-14496
▁Senator	-14497
▁dietary	-14498
▁investor	-14499
▁societies	-14500
Ms	-14501
▁Mail	-14502
▁Kyoto	-14503
▁resil	-14504
berries	-14505
▁memorable	-14506
▁interfaces	-14507
▁positioned	-14508
!).	-14509
▁".	-14510
rett	-14511
▁apopt	-14512
▁Valent	-14513
▁rivers	-14514
ancouver	-14515
▁tendency	-14516
FD	-14517
olo	-14518
anka	-14519
prof	-14520
Click	-14521
cache	-14522
prime	-14523
▁NASA	-14524
▁coin	-14525
▁sulf	-14526
▁Compl	-14527
▁blade	-14528
▁cloth	-14529
▁fleet	-14530
▁inputs	-14531
▁rolled	-14532
▁tumors	-14533
▁Springs	-14534
▁careers	-14535
▁hesitate	-14536
▁Od	-14537
▁Meet	-14538
▁Sony	-14539
▁plea	-14540
untime	-14541
▁2006,	-14542
▁snack	-14543
▁modest	-14544
▁quoted	-14545
▁Commercial	-14546
KR	-14547
{{	-14548
DNA	-14549
Red	-14550
UCT	-14551
opa	-14552
▁Heat	-14553
▁Left	-14554
▁Luke	-14555
▁Shel	-14556
▁Animal	-14557
children	-14558
▁cabinets	-14559
▁profound	-14560
▁disappear	-14561
ORK	-14562
rup	-14563
angel	-14564
shore	-14565
▁Legal	-14566
country	-14567
▁reminder	-14568
oca	-14569
bral	-14570
▁Cab	-14571
email	-14572
efined	-14573
mathsf	-14574
▁amend	-14575
▁builds	-14576
▁fibers	-14577
▁roller	-14578
▁dancing	-14579
mentioned	-14580
▁explaining	-14581
▁championship	-14582
SL	-14583
erge	-14584
zone	-14585
append	-14586
▁Present	-14587
▁altered	-14588
▁cuisine	-14589
▁antioxid	-14590
▁seasonal	-14591
▁Philippines	-14592
Ge	-14593
▁Dry	-14594
▁pseud	-14595
▁tires	-14596
ikipedia	-14597
▁categor	-14598
▁predomin	-14599
▁incidents	-14600
▁Consequently	-14601
▁interference	-14602
▁Communications	-14603
$(	-14604
NE	-14605
▁Wat	-14606
▁Jess	-14607
▁Birth	-14608
▁dirty	-14609
atories	-14610
▁implant	-14611
▁delighted	-14612
▁marketplace	-14613
▁sufficiently	-14614
oj	-14615
pol	-14616
▁(16	-14617
▁Lag	-14618
▁bay	-14619
endif	-14620
▁neat	-14621
▁zones	-14622
▁consume	-14623
gradation	-14624
▁constitu	-14625
▁tomatoes	-14626
▁distances	-14627
▁secretary	-14628
▁absorption	-14629
Acc	-14630
cow	-14631
ims	-14632
▁118	-14633
usalem	-14634
▁femin	-14635
▁Intell	-14636
▁Player	-14637
▁outdoors	-14638
Hel	-14639
oni	-14640
full	-14641
▁Shan	-14642
▁meta	-14643
uations	-14644
▁Anyway	-14645
▁Hawaii	-14646
▁intend	-14647
▁thesis	-14648
▁Treatment	-14649
▁intensive	-14650
▁vegetable	-14651
▁technicians	-14652
ERY	-14653
ahoo	-14654
▁0.3	-14655
▁Fer	-14656
▁zip	-14657
▁anytime	-14658
▁stating	-14659
arth	-14660
▁0.8	-14661
▁Nat	-14662
ursor	-14663
▁Luck	-14664
▁macro	-14665
▁shame	-14666
▁provin	-14667
response	-14668
▁encount	-14669
▁climbing	-14670
▁wellness	-14671
kt	-14672
▁Ry	-14673
asia	-14674
▁125	-14675
Level	-14676
▁bugs	-14677
abases	-14678
▁2005,	-14679
▁rally	-14680
▁wheat	-14681
▁Empire	-14682
▁devast	-14683
▁Captain	-14684
▁theater	-14685
▁maintains	-14686
▁encountered	-14687
\|	-14688
AVE	-14689
▁(20	-14690
▁-10	-14691
▁XML	-14692
ashing	-14693
▁Homes	-14694
▁alpha	-14695
▁bones	-14696
▁Usually	-14697
▁briefly	-14698
▁diamond	-14699
▁Materials	-14700
▁expressions	-14701
▁combinations	-14702
2>	-14703
Sty	-14704
ido	-14705
ois	-14706
▁$2.	-14707
▁Dor	-14708
around	-14709
▁fridge	-14710
regulated	-14711
▁Malaysia	-14712
▁Something	-14713
▁tremendous	-14714
▁insufficient	-14715
▁intersection	-14716
ci	-14717
ORS	-14718
Vis	-14719
▁700	-14720
▁Rap	-14721
▁ate	-14722
▁Gary	-14723
▁Sort	-14724
module	-14725
▁oxide	-14726
aternal	-14727
▁termination	-14728
▁Technologies	-14729
uf	-14730
17,	-14731
▁kg	-14732
Mode	-14733
▁-2.	-14734
father	-14735
static	-14736
writing	-14737
▁gluten	-14738
▁Details	-14739
▁seemingly	-14740
▁coordinate	-14741
▁determines	-14742
▁Commissioner	-14743
19,	-14744
pdf	-14745
Back	-14746
ippi	-14747
Child	-14748
▁Pred	-14749
caption	-14750
▁adoles	-14751
▁grapes	-14752
▁induce	-14753
▁dataset	-14754
▁advances	-14755
▁entrepreneur	-14756
▁gre	-14757
▁plur	-14758
Direct	-14759
▁breed	-14760
selling	-14761
▁snacks	-14762
▁schemes	-14763
2"	-14764
DO	-14765
'),	-14766
][@	-14767
▁Chi	-14768
▁Fal	-14769
▁Mas	-14770
▁Prob	-14771
Filter	-14772
▁enzym	-14773
▁ports	-14774
rection	-14775
▁tablets	-14776
Component	-14777
▁accessed	-14778
▁exhibited	-14779
▁sequencing	-14780
▁corresponds	-14781
▁architectural	-14782
/\	-14783
▁é	-14784
▁1996	-14785
▁Rain	-14786
▁donor	-14787
▁donors	-14788
▁enrich	-14789
▁inserted	-14790
▁rendered	-14791
▁departure	-14792
▁conjunction	-14793
▁connectivity	-14794
120	-14795
▁EM	-14796
▁Wow	-14797
achel	-14798
▁Utah	-14799
▁onion	-14800
▁winds	-14801
▁Labour	-14802
▁Actually	-14803
▁Function	-14804
▁unlimited	-14805
▁apartments	-14806
▁α	-14807
emb	-14808
▁Rot	-14809
▁mud	-14810
▁Cole	-14811
ussian	-14812
▁Clark	-14813
▁milit	-14814
▁accred	-14815
▁Crusher	-14816
▁Thailand	-14817
▁Indonesia	-14818
▁behavioral	-14819
▁frequencies	-14820
Gu	-14821
▁8*	-14822
boot	-14823
▁30.	-14824
▁Say	-14825
▁ric	-14826
eland	-14827
rifice	-14828
▁Notes	-14829
▁cheer	-14830
▁decay	-14831
▁pneum	-14832
ignment	-14833
ounding	-14834
ulative	-14835
▁shifts	-14836
▁Portland	-14837
▁preferably	-14838
▁promotional	-14839
\{	-14840
????	-14841
▁fate	-14842
▁wings	-14843
stration	-14844
▁Example	-14845
▁prevents	-14846
▁proceeds	-14847
▁Baltimore	-14848
▁musicians	-14849
▁transparency	-14850
▁–,	-14851
▁12-	-14852
▁miR	-14853
▁Anne	-14854
▁exped	-14855
▁Easter	-14856
▁lately	-14857
▁=======	-14858
▁Records	-14859
▁passive	-14860
▁silence	-14861
▁assisted	-14862
▁consumed	-14863
▁Vancouver	-14864
▁simulations	-14865
="../../../../	-14866
&#	-14867
Our	-14868
▁MI	-14869
obic	-14870
▁Pitts	-14871
natural	-14872
▁Region	-14873
▁browse	-14874
▁Virtual	-14875
▁==========	-14876
▁Convention	-14877
HR	-14878
не	-14879
ilib	-14880
▁wed	-14881
amous	-14882
▁visa	-14883
outing	-14884
▁harsh	-14885
▁Events	-14886
▁condem	-14887
pectives	-14888
▁ranking	-14889
▁Depending	-14890
▁machinery	-14891
▁withdrawal	-14892
3~	-14893
UB	-14894
3.0	-14895
▁CNN	-14896
▁Hem	-14897
alink	-14898
ranes	-14899
stage	-14900
▁Rules	-14901
▁sends	-14902
▁sheep	-14903
▁cleaned	-14904
▁headquarters	-14905
▁modifications	-14906
Det	-14907
▁0.7	-14908
track	-14909
▁1997	-14910
▁YOUR	-14911
▁merg	-14912
▁tanks	-14913
▁Script	-14914
▁renown	-14915
▁Roberts	-14916
▁deployed	-14917
▁severity	-14918
▁mandatory	-14919
▁Scientific	-14920
▁dysfunction	-14921
)*(	-14922
Pref	-14923
~~~~	-14924
▁los	-14925
icked	-14926
rific	-14927
▁Door	-14928
mother	-14929
▁Liver	-14930
ifiable	-14931
▁Apache	-14932
▁solved	-14933
▁maximize	-14934
▁pointing	-14935
▁wallpaper	-14936
▁compelling	-14937
IZ	-14938
+1}	-14939
▁Neb	-14940
▁Pil	-14941
▁seiz	-14942
▁appet	-14943
▁Inside	-14944
▁cardiac	-14945
▁Discover	-14946
▁reminded	-14947
▁stressed	-14948
▁Cleveland	-14949
▁suspected	-14950
Car	-14951
▁1995	-14952
▁Deal	-14953
asures	-14954
▁Wright	-14955
▁refuse	-14956
▁valued	-14957
▁vendor	-14958
▁blessed	-14959
▁colleges	-14960
▁retention	-14961
▁proceeding	-14962
bn	-14963
azy	-14964
arts	-14965
▁Ral	-14966
▁Tam	-14967
elled	-14968
▁Bowl	-14969
▁Holl	-14970
▁Allow	-14971
▁beloved	-14972
▁External	-14973
▁creatures	-14974
▁influences	-14975
▁conferences	-14976
bc	-14977
-22	-14978
Mark	-14979
bank	-14980
▁360	-14981
▁chim	-14982
uclear	-14983
▁Battle	-14984
▁dealer	-14985
▁poorly	-14986
Connection	-14987
▁destinations	-14988
▁controversial	-14989
▁rehabilitation	-14990
Gl	-14991
%).	-14992
32_	-14993
ICK	-14994
buf	-14995
make	-14996
▁grip	-14997
shaped	-14998
▁Swiss	-14999
▁ubiqu	-15000
▁actress	-15001
▁appeals	-15002
▁footage	-15003
▁startup	-15004
▁Jerusalem	-15005
▁occasional	-15006
fin	-15007
adays	-15008
▁embra	-15009
▁theft	-15010
▁Michel	-15011
▁biology	-15012
▁clarity	-15013
▁custody	-15014
▁elastic	-15015
▁blogging	-15016
▁amendment	-15017
▁appealing	-15018
▁audiences	-15019
▁scholarship	-15020
8).	-15021
lie	-15022
Down	-15023
anim	-15024
isco	-15025
▁Ath	-15026
▁NBA	-15027
▁1950	-15028
▁wars	-15029
▁invari	-15030
▁pickup	-15031
2\	-15032
;;	-15033
rock	-15034
verex	-15035
▁flip	-15036
▁overt	-15037
▁fought	-15038
▁betting	-15039
▁Bathroom	-15040
▁revenues	-15041
vs	-15042
010	-15043
jar	-15044
xsd	-15045
▁RS	-15046
Prov	-15047
robe	-15048
rosis	-15049
▁defines	-15050
▁kilomet	-15051
▁pension	-15052
▁steering	-15053
▁reviewing	-15054
▁cholesterol	-15055
▁investigating	-15056
fc	-15057
ро	-15058
Tool	-15059
▁luc	-15060
hydro	-15061
▁Nash	-15062
▁Wire	-15063
▁squee	-15064
▁Integr	-15065
▁necessity	-15066
▁selective	-15067
▁authentication	-15068
Cs	-15069
▁NAT	-15070
▁jar	-15071
erial	-15072
▁Dean	-15073
piracy	-15074
▁Spect	-15075
▁Brexit	-15076
ificates	-15077
▁Stadium	-15078
▁revised	-15079
▁imprison	-15080
▁Challenge	-15081
▁initiated	-15082
01,	-15083
▁ms	-15084
cost	-15085
▁ATP	-15086
▁Iss	-15087
▁Brew	-15088
▁Hung	-15089
▁Susan	-15090
▁nests	-15091
▁scrap	-15092
▁thumb	-15093
command	-15094
▁Meeting	-15095
▁TD	-15096
igue	-15097
shine	-15098
▁Cars	-15099
▁Race	-15100
Control	-15101
element	-15102
▁Resort	-15103
▁Muslims	-15104
▁earning	-15105
▁Kentucky	-15106
▁programmes	-15107
▁reportedly	-15108
CI	-15109
003	-15110
▁GP	-15111
Life	-15112
axies	-15113
uters	-15114
▁Tool	-15115
------	-15116
Format	-15117
igrant	-15118
rystal	-15119
▁overs	-15120
looking	-15121
▁bullet	-15122
▁tunnel	-15123
▁besides	-15124
▁blocking	-15125
▁subjected	-15126
▁positively	-15127
pic	-15128
▁8-	-15129
▁LI	-15130
▁[^	-15131
amel	-15132
▁140	-15133
▁USD	-15134
ijing	-15135
▁Dump	-15136
▁Pain	-15137
▁Dougl	-15138
▁newer	-15139
▁sodium	-15140
aughters	-15141
▁lacking	-15142
▁educated	-15143
▁restriction	-15144
▁consciousness	-15145
oons	-15146
▁27.	-15147
adequ	-15148
▁Anti	-15149
▁kiss	-15150
render	-15151
▁camping	-15152
[...]
